TRT-101601-EntropyCalibration2
input: 3ca99408
/reid_model/backbone/layers/layers.3/blocks.1/attn/Transpose_2_output_0: 3ce85da3
ONNXTRT_Broadcast_3999_output: 3b99a2b9
/reid_model/backbone/layers/layers.2/blocks.1/norm2/Mul_output_0: 3d485766
/reid_model/backbone/layers/layers.2/blocks.1/attn/Reshape_2_output_0: 3f5c6fcd
/reid_model/backbone/layers/layers.1/blocks.0/attn/Reshape_1_output_0: 3c8dab16
ONNXTRT_Broadcast_4303_output: 3c010a14
ONNXTRT_Broadcast_3152_output: 3c978337
/reid_model/backbone/layers/layers.2/blocks.2/norm2/Div_output_0: 3db733a1
/reid_model/backbone/layers/layers.3/blocks.1/Reshape_2_output_0: 3d33f359
/reid_model/backbone/layers/layers.2/blocks.1/Slice_5_output_0: 3c9c0eee
/reid_model/backbone/layers/layers.1/blocks.0/attn/Split_output_2: 3cb77f34
/reid_model/backbone/layers/layers.2/blocks.0/attn/qkv/MatMul_output_0: 3d106d18
/reid_model/backbone/layers/layers.2/blocks.5/norm1/ReduceMean_1_output_0: 3e20407d
onnx::MatMul_5000_output: 3b47ebef
/reid_model/backbone/layers/layers.1/blocks.1/attn/Reshape_2_output_0: 3f60267b
/reid_model/backbone/layers/layers.2/blocks.5/Transpose_1_output_0: 3d1fabfe
/reid_model/backbone/layers/layers.1/blocks.0/norm2/Mul_output_0: 3d31682f
reid_model.backbone.layers.2.blocks.1.norm1.weight_output: 3bbfb4e2
reid_model.backbone.layers.2.blocks.1.attn.qkv.bias_output: 3c835522
/reid_model/backbone/layers/layers.2/blocks.5/Slice_2_output_0: 3d17c727
/reid_model/backbone/layers/layers.2/blocks.1/Slice_output_0: 3cc224ae
/reid_model/backbone/layers/layers.2/blocks.0/Slice_2_output_0: 3ccd0cc7
/reid_model/backbone/layers/layers.2/blocks.5/mlp/act/Add_output_0: 3c810a14
ONNXTRT_Broadcast_3069_output: 33a9226d
/reid_model/backbone/layers/layers.2/blocks.4/Transpose_1_output_0: 3d5d6583
/reid_model/backbone/layers/layers.3/downsample/Reshape_2_output_0: 3ebc76e3
onnx::Add_4644_output: 3d596f3f
/reid_model/backbone/layers/layers.2/blocks.0/mlp/fc1/MatMul_output_0: 3d1849aa
/reid_model/backbone/layers/layers.2/blocks.0/mlp/act/Mul_1_output_0: 3c5ae12f
/reid_model/backbone/layers/layers.1/blocks.0/norm2/Pow_output_0: 3da95c26
ONNXTRT_Broadcast_3071_output: 3c1aa0b8
/reid_model/upsample/Resize_output_0: 3ca969a6
/reid_model/backbone/patch_embed/proj/Conv_output_0: 3c6e6e7a
/reid_model/backbone/patch_embed/Transpose_output_0: 3c6e6e7a
/reid_model/backbone/patch_embed/norm/ReduceMean_output_0: 3a453a17
/reid_model/backbone/patch_embed/norm/Sub_output_0: 3c826f57
/reid_model/backbone/patch_embed/norm/Constant_output_0_output: 3c810a14
ONNXTRT_Broadcast_output: 3c810a14
/reid_model/backbone/patch_embed/norm/Pow_output_0: 3c5d998d
/reid_model/backbone/patch_embed/norm/ReduceMean_1_output_0: 3b1ca913
/reid_model/backbone/patch_embed/norm/Constant_1_output_0_output: 33a9226d
ONNXTRT_Broadcast_30_output: 33a9226d
/reid_model/backbone/patch_embed/norm/Add_output_0: 3b1caa1d
/reid_model/backbone/patch_embed/norm/Sqrt_output_0: 3b92cb1e
/reid_model/backbone/patch_embed/norm/Div_output_0: 3d38f812
reid_model.backbone.patch_embed.norm.weight_output: 3cd13c46
ONNXTRT_Broadcast_32_output: 3cd13c46
/reid_model/backbone/patch_embed/norm/Mul_output_0: 3ccd2fbe
reid_model.backbone.patch_embed.norm.bias_output: 3c49ee6e
ONNXTRT_Broadcast_34_output: 3c49ee6e
/reid_model/backbone/patch_embed/norm/Add_1_output_0: 3cf210b4
reid_model.backbone.layers.2.blocks.1.mlp.fc1.bias_output: 3c47ab0f
/reid_model/backbone/layers/layers.2/blocks.4/norm2/ReduceMean_output_0: 3a893508
ONNXTRT_Broadcast_3290_output: 3be91466
/reid_model/backbone/layers/layers.2/blocks.2/norm1/Add_output_0: 3c3de1f7
reid_model.backbone.layers.2.blocks.4.norm2.bias_output: 3baee5e1
/reid_model/backbone/layers/layers.2/blocks.0/Add_1_output_0: 3d1ff51d
/reid_model/backbone/layers/layers.2/blocks.0/attn/Split_output_1: 3d0c4fbf
onnx::MatMul_5068_output: 3bc720fe
/reid_model/backbone/layers/layers.2/blocks.3/norm2/ReduceMean_output_0: 3a6c2512
ONNXTRT_Broadcast_4184_output: 3cbeae7d
/reid_model/backbone/layers/layers.2/blocks.5/mlp/act/Constant_output_0_output: 3c367d3d
/reid_model/backbone/layers/layers.2/blocks.3/Slice_10_output_0: 3d02048d
/reid_model/backbone/layers/layers.3/blocks.0/attn/Split_output_1: 3d1a7ff6
/reid_model/backbone/layers/layers.1/blocks.1/Slice_6_output_0: 3c90d9fa
reid_model.backbone.layers.3.blocks.0.norm2.weight_output: 3cebb697
/reid_model/backbone/layers/layers.2/blocks.3/attn/Mul_output_0: 3bf36a0f
/reid_model/backbone/layers/layers.0/blocks.0/norm1/ReduceMean_output_0: 3afeec37
/reid_model/backbone/layers/layers.0/blocks.0/norm1/Sub_output_0: 3d0a3a3c
/reid_model/backbone/layers/layers.0/blocks.0/norm1/Constant_output_0_output: 3c810a14
ONNXTRT_Broadcast_40_output: 3c810a14
/reid_model/backbone/layers/layers.0/blocks.0/norm1/Pow_output_0: 3d4fb93b
/reid_model/backbone/layers/layers.0/blocks.0/norm1/ReduceMean_1_output_0: 3bbec050
/reid_model/backbone/layers/layers.0/blocks.0/norm1/Constant_1_output_0_output: 33a9226d
ONNXTRT_Broadcast_42_output: 33a9226d
/reid_model/backbone/layers/layers.0/blocks.0/norm1/Add_output_0: 3bbec0eb
/reid_model/backbone/layers/layers.0/blocks.0/norm1/Sqrt_output_0: 3bd979bb
/reid_model/backbone/layers/layers.0/blocks.0/norm1/Div_output_0: 3d404185
reid_model.backbone.layers.0.blocks.0.norm1.weight_output: 3c431b42
ONNXTRT_Broadcast_44_output: 3c431b42
/reid_model/backbone/layers/layers.0/blocks.0/norm1/Mul_output_0: 3d211030
reid_model.backbone.layers.0.blocks.0.norm1.bias_output: 3bed5a4a
ONNXTRT_Broadcast_46_output: 3bed5a4a
/reid_model/backbone/layers/layers.0/blocks.0/norm1/Add_1_output_0: 3d137e2f
/reid_model/backbone/layers/layers.3/blocks.0/mlp/fc2/Add_output_0: 3e1089c3
/reid_model/backbone/layers/layers.2/blocks.0/attn/Reshape_1_output_0: 3c5a6389
/reid_model/backbone/layers/layers.2/blocks.2/norm1/Constant_output_0_output: 3c810a14
reid_model.backbone.layers.2.blocks.2.norm2.bias_output: 3b850a4b
/reid_model/backbone/layers/layers.2/blocks.0/attn/qkv/Add_output_0: 3d2088bf
/reid_model/backbone/layers/layers.2/blocks.0/mlp/act/Div_output_0: 3d12196d
ONNXTRT_Broadcast_3876_output: 3b47ebef
/reid_model/backbone/layers/layers.2/blocks.4/norm1/Sub_output_0: 3dc23d63
/reid_model/backbone/layers/layers.2/blocks.3/attn/softmax/Softmax_output_0: 3bc04715
/reid_model/backbone/layers/layers.2/blocks.3/attn/softmax/Softmax_output: 3bc04715
ONNXTRT_Broadcast_3073_output: 3c4a022e
ONNXTRT_Broadcast_3872_output: 3b691d1b
ONNXTRT_Broadcast_2571_output: 3c010a14
/reid_model/backbone/layers/layers.3/blocks.0/mlp/act/Mul_output_0: 3dbc07ba
/reid_model/backbone/layers/layers.3/blocks.1/attn/softmax/Softmax_output_0: 3b7f5f2b
/reid_model/backbone/layers/layers.3/blocks.0/attn/Constant_9_output_0_output: 3ab67d3d
/reid_model/backbone/layers/layers.1/blocks.0/mlp/act/Constant_2_output_0_output: 3b810a14
/reid_model/backbone/layers/layers.2/blocks.4/attn/Transpose_1_output_0: 3d242f13
/reid_model/backbone/layers/layers.3/blocks.1/Reshape_9_output_0: 3f142981
/reid_model/backbone/layers/layers.3/blocks.0/norm2/Div_output_0: 3dd11b3f
/reid_model/backbone/layers/layers.2/blocks.4/attn/qkv/MatMul_output_0: 3d219eb9
/reid_model/backbone/layers/layers.2/blocks.5/Slice_9_output_0: 3dbc3e70
/reid_model/backbone/norm/Constant_1_output_0_output: 33a9226d
reid_model.backbone.layers.2.blocks.1.attn.proj.bias_output: 3b8c59ca
/reid_model/backbone/layers/layers.3/downsample/norm/ReduceMean_1_output_0: 405baf8f
/reid_model/backbone/layers/layers.2/blocks.0/Reshape_6_output_0: 3ccd0cc7
/reid_model/backbone/layers/layers.2/blocks.1/Add_1_output_0: 3d63270d
/reid_model/backbone/layers/layers.1/blocks.1/Reshape_4_output_0: 3d40c000
/reid_model/backbone/layers/layers.2/blocks.5/attn/proj/MatMul_output_0: 3d1611aa
reid_model.backbone.layers.2.blocks.4.mlp.fc2.bias_output: 3b719a9e
/reid_model/backbone/layers/layers.2/blocks.5/norm1/Constant_output_0_output: 3c810a14
/reid_model/backbone/layers/layers.2/blocks.1/Concat_11_output_0: 3c9c0eee
/reid_model/backbone/layers/layers.2/blocks.4/attn/qkv/Add_output_0: 3d328465
/reid_model/backbone/layers/layers.2/blocks.1/attn/Squeeze_1_output_0: 3d160efc
/reid_model/backbone/layers/layers.3/blocks.0/Slice_1_output_0: 3d145aa8
/reid_model/backbone/layers/layers.2/blocks.0/mlp/act/Erf_output_0: 3c010a14
/reid_model/backbone/layers/layers.1/blocks.0/norm2/ReduceMean_1_output_0: 3baed48d
/reid_model/backbone/layers/layers.2/blocks.2/norm1/Div_output_0: 3d9e8071
/reid_model/backbone/layers/layers.3/blocks.1/Reshape_3_output_0: 3d33f359
/reid_model/backbone/layers/layers.2/blocks.5/attn/Transpose_2_output_0: 3d027554
/reid_model/backbone/layers/layers.1/blocks.0/Reshape_2_output_0: 3cc475eb
reid_model.backbone.layers.2.blocks.3.norm2.weight_output: 3c2ee843
ONNXTRT_Broadcast_4074_output: 33a9226d
/reid_model/backbone/layers/layers.2/blocks.3/norm2/Constant_1_output_0_output: 33a9226d
ONNXTRT_Broadcast_1871_output: 3c010a14
/reid_model/backbone/layers/layers.2/blocks.0/mlp/act/Constant_1_output_0_output: 3c010a14
ONNXTRT_Broadcast_3756_output: 3b810a14
/reid_model/backbone/layers/layers.1/blocks.1/attn/Split_output_0: 3d2728d2
ONNXTRT_Broadcast_1050_output: 3b14f92d
/reid_model/backbone/layers/layers.2/blocks.4/attn/MatMul_1_output_0: 3cd66bd9
ONNXTRT_Broadcast_1873_output: 3b810a14
/reid_model/backbone/layers/layers.2/blocks.1/norm2/Add_1_output_0: 3d5e6825
/reid_model/backbone/layers/layers.2/blocks.5/mlp/act/Erf_output_0: 3c010a14
/reid_model/backbone/layers/layers.2/blocks.2/attn/Reshape_output_0: 3d1ff991
/reid_model/backbone/layers/layers.1/blocks.1/attn/Reshape_output_0: 3d2d1526
/reid_model/backbone/layers/layers.3/blocks.0/attn/proj/Add_output_0: 3d145aa8
/reid_model/backbone/layers/layers.2/blocks.1/norm1/Mul_output_0: 3cdc3168
ONNXTRT_Broadcast_2340_output: 3c810a14
/reid_model/backbone/layers/layers.2/blocks.1/mlp/act/Add_output_0: 3c80eb7e
/reid_model/backbone/layers/layers.2/blocks.3/Reshape_7_output_0: 3d01d6c3
/reid_model/backbone/layers/layers.2/blocks.1/Reshape_5_output_0: 3c9c0eee
ONNXTRT_Broadcast_4080_output: 3b092561
/reid_model/backbone/layers/layers.1/blocks.0/Slice_2_output_0: 3c97b25e
ONNXTRT_Broadcast_4326_output: 280de15b
/reid_model/backbone/layers/layers.3/blocks.0/norm2/Sub_output_0: 3db35f9a
(Unnamed Layer* 6728) [Constant]_output: 7f800000
/reid_model/backbone/layers/layers.2/blocks.1/mlp/fc1/MatMul_output_0: 3d13d4aa
/reid_model/backbone/layers/layers.3/blocks.0/norm1/Add_output_0: 3d95e0cd
/reid_model/backbone/layers/layers.3/blocks.0/attn/softmax/Softmax_output: 3b810eb2
/reid_model/backbone/layers/layers.2/blocks.2/norm1/Pow_output_0: 3e1c3806
/reid_model/backbone/layers/layers.2/downsample/norm/Add_output_0: 3c5a257a
ONNXTRT_Broadcast_1073_output: 3c1d1408
ONNXTRT_Broadcast_3067_output: 3c810a14
onnx::MatMul_4941_output: 3b8e5f5d
/reid_model/backbone/layers/layers.2/downsample/norm/Constant_1_output_0_output: 33a9226d
/reid_model/backbone/layers/layers.3/blocks.1/mlp/fc2/Add_output_0: 3ea61c2d
/reid_model/backbone/layers/layers.2/blocks.1/Reshape_7_output_0: 3c9c0eee
/reid_model/backbone/layers/layers.2/blocks.0/norm1/Sqrt_output_0: 3ba969f2
reid_model.backbone.layers.2.blocks.0.mlp.fc2.bias_output: 3b9848d6
/reid_model/backbone/layers/layers.3/blocks.1/attn/Reshape_1_output_0: 3ce85da3
/reid_model/backbone/layers/layers.2/blocks.1/attn/Transpose_1_output_0: 3d160efc
/reid_model/backbone/layers/layers.2/blocks.5/attn/Squeeze_1_output_0: 3d2fb543
/reid_model/backbone/layers/layers.2/blocks.0/attn/Squeeze_output_0: 3d2e6a51
/reid_model/backbone/layers/layers.1/blocks.0/attn/MatMul_1_output_0: 3c8dab16
/reid_model/backbone/layers/layers.2/blocks.3/Add_1_output_0: 3dc839bc
/reid_model/backbone/layers/layers.2/blocks.0/norm2/Div_output_0: 3d9eb0b9
/reid_model/backbone/layers/layers.3/blocks.0/norm1/ReduceMean_1_output_0: 3d95e0c6
/reid_model/backbone/layers/layers.2/blocks.4/Slice_1_output_0: 3d81d060
/reid_model/backbone/layers/layers.2/blocks.1/Transpose_2_output_0: 3c9c0eee
/reid_model/backbone/layers/layers.1/blocks.1/norm1/ReduceMean_1_output_0: 3bc90f0f
/reid_model/backbone/layers/layers.3/blocks.0/attn/proj/MatMul_output_0: 3d4be87f
/reid_model/backbone/layers/layers.3/blocks.1/Reshape_6_output_0: 3e250282
/reid_model/backbone/layers/layers.1/blocks.1/attn/Reshape_1_output_0: 3dfa3dc1
/reid_model/backbone/layers/layers.2/blocks.0/attn/softmax/Softmax_output: 3b9b9331
/reid_model/backbone/layers/layers.2/blocks.4/attn/softmax/Softmax_output_0: 3b80de82
ONNXTRT_Broadcast_4101_output: 33a9226d
/reid_model/backbone/layers/layers.3/blocks.0/Pad_output_0: 3cfb5db6
/reid_model/backbone/layers/layers.2/blocks.4/mlp/act/Mul_output_0: 3d0d0f3d
/reid_model/backbone/layers/layers.1/blocks.1/norm1/Mul_output_0: 3d584edb
/reid_model/backbone/layers/layers.2/blocks.3/Transpose_2_output_0: 3d01d6c3
/reid_model/backbone/layers/layers.1/blocks.1/Slice_7_output_0: 3c905d47
/reid_model/backbone/layers/layers.3/blocks.1/norm1/Constant_1_output_0_output: 33a9226d
/reid_model/backbone/layers/layers.3/downsample/norm/Constant_1_output_0_output: 33a9226d
/reid_model/backbone/layers/layers.1/blocks.0/Reshape_8_output_0: 3d0efa10
/reid_model/backbone/layers/layers.1/blocks.1/Slice_output_0: 3d47905a
reid_model.backbone.layers.3.blocks.0.mlp.fc2.bias_output: 3b97c442
ONNXTRT_Broadcast_2573_output: 3b810a14
/reid_model/backbone/layers/layers.0/blocks.0/Pad_output_0: 3d137e2f
ONNXTRT_Broadcast_1782_output: 3acf4219
/reid_model/backbone/layers/layers.2/blocks.3/attn/proj/MatMul_output_0: 3ce6c5ce
/reid_model/backbone/layers/layers.2/blocks.2/attn/proj/MatMul_output_0: 3c603bff
ONNXTRT_Broadcast_2833_output: 3af557f8
/reid_model/backbone/layers/layers.3/downsample/norm/ReduceMean_output_0: 3b2f5a8b
/reid_model/backbone/layers/layers.1/blocks.0/mlp/act/Constant_output_0_output: 3c367d3d
reid_model.backbone.layers.3.downsample.norm.bias_output: 3bbe668a
/reid_model/backbone/layers/layers.1/blocks.0/mlp/act/Mul_output_0: 3cbc7f77
/reid_model/backbone/layers/layers.2/blocks.4/attn/Split_output_0: 3d39259f
onnx::Add_4787_output: 3d953353
/reid_model/backbone/layers/layers.1/blocks.1/Slice_10_output_0: 3c908a5c
/reid_model/backbone/layers/layers.2/blocks.4/mlp/fc2/Add_output_0: 3da1daff
/reid_model/backbone/layers/layers.2/blocks.1/norm2/Constant_1_output_0_output: 33a9226d
/reid_model/backbone/layers/layers.2/blocks.3/attn/proj/Add_output_0: 3d01d6c3
/reid_model/backbone/layers/layers.1/blocks.1/norm1/Add_1_output_0: 3d40c000
ONNXTRT_Broadcast_2835_output: 3b75c7c5
ONNXTRT_Broadcast_1886_output: 33a9226d
onnx::MatMul_4883_output: 3af557f8
/reid_model/backbone/layers/layers.2/blocks.0/attn/Mul_output_0: 3bf6a914
reid_model.backbone.layers.3.blocks.0.norm1.weight_output: 3be38b98
/reid_model/backbone/layers/layers.2/blocks.1/Reshape_9_output_0: 3d63270d
/reid_model/backbone/layers/layers.3/blocks.0/norm1/Div_output_0: 3ddedb31
/reid_model/backbone/layers/layers.2/blocks.2/norm2/Sqrt_output_0: 3c2e609f
/reid_model/backbone/layers/layers.2/blocks.1/norm2/Constant_output_0_output: 3c810a14
/reid_model/backbone/layers/layers.1/blocks.0/norm2/Constant_output_0_output: 3c810a14
/reid_model/backbone/layers/layers.2/blocks.4/attn/proj/Add_output_0: 3d81d060
/reid_model/backbone/layers/layers.2/blocks.1/attn/Split_output_0: 3d2e9b3c
/reid_model/backbone/layers/layers.3/blocks.0/norm1/Constant_1_output_0_output: 33a9226d
/reid_model/backbone/layers/layers.2/blocks.5/norm1/Sqrt_output_0: 3dbeaf18
/reid_model/backbone/layers/layers.1/blocks.1/Slice_9_output_0: 3c8b8972
onnx::MatMul_4780_output: 3b6dcc78
/reid_model/backbone/layers/layers.3/blocks.1/norm1/Add_1_output_0: 3d33f359
/reid_model/backbone/layers/layers.2/blocks.3/Reshape_5_output_0: 3d01d6c3
ONNXTRT_Broadcast_4299_output: 3c50f109
/reid_model/backbone/layers/layers.2/blocks.5/norm1/Mul_output_0: 3d721903
/reid_model/backbone/layers/layers.0/blocks.0/Reshape_2_output_0: 3d137e2f
/reid_model/backbone/layers/layers.0/blocks.0/Transpose_1_output_0: 3d137e2f
/reid_model/backbone/layers/layers.1/blocks.1/norm1/Constant_output_0_output: 3c810a14
ONNXTRT_Broadcast_3284_output: 3c810a14
reid_model.backbone.layers.2.blocks.2.norm1.bias_output: 3b671b82
/reid_model/backbone/layers/layers.2/blocks.3/attn/Transpose_2_output_0: 3cb91220
/reid_model/backbone/layers/layers.2/blocks.3/attn/MatMul_1_output_0: 3cb91220
/reid_model/backbone/layers/layers.1/blocks.0/norm2/ReduceMean_output_0: 3b26a6b7
/reid_model/backbone/layers/layers.0/blocks.0/Reshape_3_output_0: 3d137e2f
/reid_model/backbone/layers/layers.2/blocks.5/Slice_output_0: 3d1f3184
/reid_model/backbone/layers/layers.2/blocks.0/norm2/Constant_output_0_output: 3c810a14
ONNXTRT_Broadcast_935_output: 3b306fee
/reid_model/backbone/layers/layers.2/blocks.2/attn/softmax/Softmax_output: 3b7d74fd
/reid_model/backbone/layers/layers.2/blocks.3/Slice_7_output_0: 3cf3d286
/reid_model/backbone/layers/layers.0/blocks.0/Reshape_4_output_0: 3d137e2f
/reid_model/backbone/layers/layers.3/blocks.1/norm1/Add_output_0: 3e82dd51
reid_model.backbone.layers.1.blocks.0.norm2.bias_output: 3b659e56
onnx::MatMul_4925_output: 3b0d8a55
/reid_model/backbone/layers/layers.1/blocks.1/norm1/Sub_output_0: 3d3b3336
/reid_model/backbone/layers/layers.2/blocks.4/attn/Squeeze_output_0: 3d39259f
/reid_model/backbone/layers/layers.2/blocks.3/attn/Add_1_output_0: 3f5c227f
/reid_model/backbone/layers/layers.3/blocks.1/norm1/Mul_output_0: 3d8f4b8c
/reid_model/backbone/layers/layers.2/blocks.4/norm2/Pow_output_0: 40c90558
onnx::MatMul_4536_output: 3ba4aa66
ONNXTRT_Broadcast_121_output: 3ba4aa66
/reid_model/backbone/layers/layers.0/blocks.0/attn/qkv/MatMul_output_0: 3cf6d537
reid_model.backbone.layers.0.blocks.0.attn.qkv.bias_output: 3c55a1ea
ONNXTRT_Broadcast_123_output: 3c55a1ea
/reid_model/backbone/layers/layers.0/blocks.0/attn/qkv/Add_output_0: 3d0ef915
/reid_model/backbone/layers/layers.2/blocks.0/norm2/ReduceMean_1_output_0: 3b85c1d5
/reid_model/backbone/layers/layers.2/blocks.4/attn/Mul_output_0: 3c02eb2d
/reid_model/backbone/layers/layers.2/downsample/norm/Constant_output_0_output: 3c810a14
reid_model.backbone.layers.2.blocks.5.norm2.weight_output: 3c9b2374
/reid_model/backbone/layers/layers.2/blocks.0/norm1/Pow_output_0: 3d8321d2
/reid_model/backbone/layers/layers.3/blocks.0/norm2/ReduceMean_output_0: 3955c581
ONNXTRT_Broadcast_2369_output: 33a9226d
/reid_model/backbone/layers/layers.2/blocks.3/attn/Constant_13_output_0_output: 3f499fbf
/reid_model/backbone/layers/layers.0/blocks.0/attn/Reshape_output_0: 3d0ef915
/reid_model/backbone/layers/layers.0/blocks.0/attn/Transpose_output_0: 3d0ef915
/reid_model/backbone/layers/layers.2/blocks.0/Transpose_1_output_0: 3c60fff8
reid_model.backbone.layers.2.blocks.2.attn.qkv.bias_output: 3c7532d5
ONNXTRT_Broadcast_1653_output: 3c810a14
/reid_model/backbone/layers/layers.2/downsample/norm/Sub_output_0: 3dcaf696
/reid_model/backbone/layers/layers.2/blocks.3/attn/Reshape_1_output_0: 3dc80967
ONNXTRT_Broadcast_2367_output: 3c810a14
/reid_model/backbone/layers/layers.0/blocks.0/attn/Split_output_0: 3d3004e3
ONNXTRT_Broadcast_3257_output: 3c810a14
/reid_model/backbone/layers/layers.2/blocks.4/Reshape_5_output_0: 3d81d060
ONNXTRT_Broadcast_4289_output: 3c810a14
/reid_model/backbone/layers/layers.0/blocks.0/attn/Split_output_1: 3d062d12
/reid_model/backbone/layers/layers.2/blocks.3/mlp/act/Mul_output_0: 3d1f693d
/reid_model/backbone/layers/layers.2/blocks.0/norm1/ReduceMean_1_output_0: 3b49d393
/reid_model/backbone/layers/layers.2/downsample/Pad_output_0: 3dc5cc5b
/reid_model/backbone/layers/layers.0/blocks.0/attn/Split_output_2: 3ce238b3
/reid_model/backbone/layers/layers.2/blocks.5/attn/Reshape_1_output_0: 3de4655e
/reid_model/backbone/layers/layers.0/blocks.0/attn/Squeeze_output_0: 3d3004e3
/reid_model/backbone/layers/layers.2/blocks.0/Reshape_8_output_0: 3d26ccb4
/reid_model/backbone/layers/layers.0/blocks.0/attn/Squeeze_1_output_0: 3d062d12
ONNXTRT_Broadcast_3056_output: 3b810a14
/reid_model/backbone/layers/layers.0/blocks.0/attn/Squeeze_2_output_0: 3ce238b3
/reid_model/backbone/layers/layers.0/blocks.0/attn/Constant_9_output_0_output: 3ab67d3d
ONNXTRT_Broadcast_146_output: 3ab67d3d
/reid_model/backbone/layers/layers.0/blocks.0/attn/Mul_output_0: 3bf8edb7
/reid_model/backbone/layers/layers.0/blocks.0/attn/Transpose_1_output_0: 3d062d12
/reid_model/backbone/layers/layers.0/blocks.0/attn/MatMul_output_0: 3dc66a83
onnx::Add_4543_output: 3d61f33a
/reid_model/backbone/layers/layers.0/blocks.0/attn/Add_output_0: 3dd53402
/reid_model/backbone/layers/layers.0/blocks.0/attn/softmax/Softmax_output: 3bbed06d
/reid_model/backbone/layers/layers.0/blocks.0/attn/softmax/Softmax_output_0: 3bbed06d
ONNXTRT_Broadcast_4297_output: 3b00a2a8
/reid_model/backbone/layers/layers.2/blocks.1/attn/softmax/Softmax_output_0: 3bb0cac6
/reid_model/backbone/layers/layers.0/blocks.0/attn/MatMul_1_output_0: 3cc52414
/reid_model/backbone/layers/layers.0/blocks.0/attn/Transpose_2_output_0: 3cc52414
/reid_model/backbone/layers/layers.2/blocks.3/attn/Reshape_2_output_0: 3f5c227f
/reid_model/backbone/layers/layers.1/blocks.0/mlp/fc2/Add_output_0: 3ca5595b
/reid_model/backbone/layers/layers.1/blocks.1/attn/Transpose_2_output_0: 3c9f00b1
/reid_model/backbone/layers/layers.1/blocks.1/Concat_12_output_0: 3c90d9fa
/reid_model/backbone/layers/layers.2/blocks.4/Reshape_8_output_0: 3e1967d8
/reid_model/backbone/layers/layers.2/blocks.1/Reshape_8_output_0: 3d4d5028
/reid_model/backbone/layers/layers.0/blocks.0/attn/Reshape_1_output_0: 3cc52414
onnx::MatMul_4545_output: 3adb3ad9
ONNXTRT_Broadcast_152_output: 3adb3ad9
/reid_model/backbone/layers/layers.0/blocks.0/attn/proj/MatMul_output_0: 3c94be67
reid_model.backbone.layers.0.blocks.0.attn.proj.bias_output: 3bae5ed9
ONNXTRT_Broadcast_154_output: 3bae5ed9
/reid_model/backbone/layers/layers.0/blocks.0/attn/proj/Add_output_0: 3ca4212e
/reid_model/backbone/layers/layers.3/blocks.0/mlp/act/Erf_output_0: 3c010a14
reid_model.backbone.layers.1.blocks.0.attn.qkv.bias_output: 3c8cbc10
/reid_model/backbone/layers/layers.2/blocks.0/Reshape_7_output_0: 3ccd0cc7
ONNXTRT_Broadcast_3535_output: 3bba1e55
/reid_model/backbone/layers/layers.1/blocks.1/attn/qkv/Add_output_0: 3d2d1526
/reid_model/backbone/layers/layers.2/blocks.4/mlp/act/Mul_1_output_0: 3c8d0f3d
/reid_model/backbone/layers/layers.0/blocks.0/Reshape_5_output_0: 3ca4212e
onnx::MatMul_4679_output: 3b44c271
/reid_model/backbone/layers/layers.1/blocks.1/attn/qkv/MatMul_output_0: 3d23268e
/reid_model/backbone/layers/layers.2/blocks.3/norm2/ReduceMean_1_output_0: 3d3c7bde
/reid_model/backbone/layers/layers.2/blocks.0/attn/proj/MatMul_output_0: 3c494a18
/reid_model/backbone/layers/layers.2/blocks.1/mlp/act/Mul_output_0: 3cdc1f5f
/reid_model/backbone/layers/layers.2/blocks.3/attn/Squeeze_1_output_0: 3d217353
/reid_model/backbone/layers/layers.2/blocks.1/mlp/act/Constant_1_output_0_output: 3c010a14
/reid_model/backbone/layers/layers.3/blocks.1/mlp/fc1/Add_output_0: 3e4201d0
/reid_model/backbone/layers/layers.2/blocks.5/attn/Split_output_2: 3d1db2fe
/reid_model/backbone/layers/layers.3/blocks.0/norm2/Add_1_output_0: 3e33971c
ONNXTRT_Broadcast_2825_output: 3ab67d3d
/reid_model/backbone/layers/layers.2/blocks.3/attn/Constant_9_output_0_output: 3ab67d3d
/reid_model/backbone/layers/layers.2/blocks.1/attn/softmax/Softmax_output: 3bb0cac6
/reid_model/backbone/layers/layers.2/blocks.3/attn/Squeeze_output_0: 3d2c1eb2
/reid_model/backbone/layers/layers.0/blocks.0/Reshape_6_output_0: 3ca4212e
/reid_model/backbone/layers/layers.0/blocks.0/Transpose_2_output_0: 3ca4212e
/reid_model/backbone/layers/layers.2/blocks.5/Add_1_output_0: 3ebc76e3
/reid_model/backbone/layers/layers.2/blocks.3/attn/Split_output_2: 3cec579d
ONNXTRT_Broadcast_1863_output: 3b9996d9
/reid_model/Clip_output_0: 3e39fe7f
ONNXTRT_Broadcast_3991_output: 3ab67d3d
ONNXTRT_Broadcast_2354_output: 3c010a14
/reid_model/backbone/layers/layers.2/blocks.0/attn/Transpose_2_output_0: 3c5a6389
ONNXTRT_Broadcast_1884_output: 3c810a14
/reid_model/backbone/layers/layers.0/blocks.0/Reshape_7_output_0: 3ca4212e
/reid_model/backbone/layers/layers.1/blocks.0/attn/Squeeze_1_output_0: 3d200584
/reid_model/backbone/layers/layers.3/blocks.0/norm2/Constant_1_output_0_output: 33a9226d
/reid_model/backbone/layers/layers.2/blocks.3/Slice_8_output_0: 3d01d6c3
/reid_model/backbone/layers/layers.2/blocks.3/attn/Split_output_1: 3d217353
/reid_model/backbone/layers/layers.2/blocks.3/attn/Transpose_output_0: 3d249239
/reid_model/backbone/layers/layers.2/blocks.3/norm2/Div_output_0: 3dcf26bc
reid_model.backbone.layers.3.blocks.1.norm2.bias_output: 3c7f68b5
/reid_model/backbone/layers/layers.2/blocks.2/mlp/fc1/MatMul_output_0: 3d2885e7
/reid_model/backbone/layers/layers.2/blocks.5/Pad_output_0: 3d1fabfe
/reid_model/backbone/layers/layers.2/blocks.0/attn/Reshape_output_0: 3d2088bf
/reid_model/backbone/layers/layers.2/blocks.3/attn/Split_output_0: 3d2c1eb2
/reid_model/backbone/layers/layers.3/blocks.1/Pad_output_0: 3d33f359
/reid_model/backbone/layers/layers.3/blocks.0/mlp/act/Constant_1_output_0_output: 3c010a14
/reid_model/backbone/layers/layers.3/blocks.0/attn/Squeeze_output_0: 3d37515e
reid_model.backbone.layers.2.blocks.5.attn.qkv.bias_output: 3c8a7157
/reid_model/backbone/layers/layers.3/downsample/Reshape_3_output_0: 3ebc76e3
/reid_model/backbone/layers/layers.2/blocks.5/attn/Squeeze_2_output_0: 3d1db2fe
/reid_model/backbone/layers/layers.2/blocks.3/attn/Reshape_output_0: 3d249239
/reid_model/backbone/layers/layers.2/blocks.3/norm1/Sqrt_output_0: 3cb5ab74
/reid_model/backbone/layers/layers.2/downsample/Reshape_3_output_0: 3dc5cc5b
onnx::Add_4923_output: 3d416f80
/reid_model/backbone/layers/layers.1/blocks.1/Slice_8_output_0: 3c9101ca
reid_model.backbone.norm.bias_output: 3bb54615
/reid_model/backbone/layers/layers.2/blocks.4/attn/Reshape_output_0: 3d328465
/reid_model/backbone/layers/layers.3/blocks.1/attn/qkv/Add_output_0: 3d30d9bc
/reid_model/backbone/layers/layers.3/blocks.0/mlp/act/Mul_1_output_0: 3d3c07ba
/reid_model/backbone/layers/layers.3/blocks.0/attn/Split_output_2: 3cf70724
/reid_model/backbone/layers/layers.0/blocks.0/Slice_1_output_0: 3ca4212e
ONNXTRT_Broadcast_2557_output: 3c810a14
/reid_model/backbone/layers/layers.1/blocks.0/attn/softmax/Softmax_output_0: 3aaf98d3
/reid_model/backbone/layers/layers.2/blocks.5/Reshape_9_output_0: 3ebc76e3
/reid_model/backbone/layers/layers.2/blocks.3/attn/qkv/Add_output_0: 3d249239
/reid_model/backbone/layers/layers.2/blocks.1/Slice_1_output_0: 3cbc5724
/reid_model/backbone/layers/layers.2/blocks.5/Slice_6_output_0: 3dc206e6
ONNXTRT_Broadcast_4301_output: 3c367d3d
/reid_model/backbone/layers/layers.2/blocks.3/attn/qkv/MatMul_output_0: 3d205fe0
ONNXTRT_Broadcast_3271_output: 3c010a14
reid_model.backbone.layers.2.blocks.5.norm1.weight_output: 3c23e570
/reid_model/backbone/layers/layers.2/blocks.2/norm2/Add_1_output_0: 3d8643be
/reid_model/backbone/layers/layers.1/blocks.1/attn/Squeeze_output_0: 3d2728d2
/reid_model/backbone/layers/layers.2/blocks.5/attn/Mul_output_0: 3bec2904
reid_model.backbone.layers.3.blocks.0.norm2.bias_output: 3c8ccf45
/reid_model/backbone/layers/layers.3/blocks.1/attn/Add_output_0: 3e19184e
/reid_model/backbone/layers/layers.2/blocks.1/Reshape_3_output_0: 3cc22443
/reid_model/ReduceL2_4323_output: 40a17581
reid_model.backbone.layers.2.blocks.0.norm1.bias_output: 3b46bcaa
ONNXTRT_Broadcast_1655_output: 33a9226d
reid_model.backbone.layers.3.blocks.0.attn.proj.bias_output: 3b99a2b9
/reid_model/backbone/norm/Mul_output_0: 3d891218
ONNXTRT_Broadcast_4295_output: 3c7f68b5
/reid_model/backbone/layers/layers.2/blocks.5/norm2/Sqrt_output_0: 3dcbef47
/reid_model/backbone/layers/layers.2/blocks.3/Reshape_4_output_0: 3d17411c
/reid_model/backbone/layers/layers.2/blocks.5/mlp/act/Mul_output_0: 3d81ff3c
onnx::MatMul_5083_output: 3b00a2a8
/reid_model/backbone/norm/ReduceMean_output_0: 39b82835
/reid_model/backbone/layers/layers.0/blocks.0/Slice_2_output_0: 3ca4212e
/reid_model/backbone/layers/layers.0/blocks.0/Add_output_0: 3d0dd461
/reid_model/backbone/layers/layers.1/blocks.1/attn/Add_1_output_0: 3f60267b
/reid_model/backbone/layers/layers.2/blocks.3/Reshape_3_output_0: 3d17411c
/reid_model/backbone/layers/layers.3/blocks.1/mlp/act/Constant_output_0_output: 3c367d3d
ONNXTRT_Broadcast_3752_output: 3c367d3d
ONNXTRT_Broadcast_1861_output: 3c0b7bae
/reid_model/backbone/layers/layers.2/blocks.0/norm1/ReduceMean_output_0: 3978e198
/reid_model/backbone/layers/layers.0/blocks.0/Reshape_8_output_0: 3d0dd461
/reid_model/backbone/layers/layers.0/blocks.0/norm2/ReduceMean_output_0: 3ba2dd0c
/reid_model/backbone/layers/layers.0/blocks.0/norm2/Sub_output_0: 3cfcbd45
/reid_model/backbone/layers/layers.0/blocks.0/norm2/Constant_output_0_output: 3c810a14
ONNXTRT_Broadcast_227_output: 3c810a14
/reid_model/backbone/layers/layers.0/blocks.0/norm2/Pow_output_0: 3d1493ef
/reid_model/backbone/layers/layers.0/blocks.0/norm2/ReduceMean_1_output_0: 3b87f513
/reid_model/backbone/layers/layers.0/blocks.0/norm2/Constant_1_output_0_output: 33a9226d
ONNXTRT_Broadcast_229_output: 33a9226d
/reid_model/backbone/layers/layers.0/blocks.0/norm2/Add_output_0: 3b87f5a7
/reid_model/backbone/layers/layers.0/blocks.0/norm2/Sqrt_output_0: 3bbb28c1
/reid_model/backbone/layers/layers.0/blocks.0/norm2/Div_output_0: 3d7e4c62
reid_model.backbone.layers.0.blocks.0.norm2.weight_output: 3ce2f5ae
ONNXTRT_Broadcast_231_output: 3ce2f5ae
/reid_model/backbone/layers/layers.0/blocks.0/norm2/Mul_output_0: 3dea75e0
reid_model.backbone.layers.0.blocks.0.norm2.bias_output: 3c253f2a
ONNXTRT_Broadcast_233_output: 3c253f2a
/reid_model/backbone/layers/layers.0/blocks.0/norm2/Add_1_output_0: 3de10185
onnx::MatMul_4560_output: 3b613775
ONNXTRT_Broadcast_235_output: 3b613775
/reid_model/backbone/layers/layers.0/blocks.0/mlp/fc1/MatMul_output_0: 3d869e66
reid_model.backbone.layers.0.blocks.0.mlp.fc1.bias_output: 3c2c3ba7
ONNXTRT_Broadcast_237_output: 3c2c3ba7
/reid_model/backbone/layers/layers.0/blocks.0/mlp/fc1/Add_output_0: 3d55420a
/reid_model/backbone/layers/layers.0/blocks.0/mlp/act/Constant_output_0_output: 3c367d3d
ONNXTRT_Broadcast_239_output: 3c367d3d
/reid_model/backbone/layers/layers.0/blocks.0/mlp/act/Div_output_0: 3d16cbd1
/reid_model/backbone/layers/layers.0/blocks.0/mlp/act/Erf_output_0: 3c010a14
/reid_model/backbone/layers/layers.0/blocks.0/mlp/act/Constant_1_output_0_output: 3c010a14
ONNXTRT_Broadcast_241_output: 3c010a14
/reid_model/backbone/layers/layers.0/blocks.0/mlp/act/Add_output_0: 3c810a14
/reid_model/backbone/layers/layers.0/blocks.0/mlp/act/Mul_output_0: 3d1d2330
/reid_model/backbone/layers/layers.0/blocks.0/mlp/act/Constant_2_output_0_output: 3b810a14
ONNXTRT_Broadcast_243_output: 3b810a14
/reid_model/backbone/layers/layers.0/blocks.0/mlp/act/Mul_1_output_0: 3c9d2330
onnx::MatMul_4561_output: 3b107b6c
ONNXTRT_Broadcast_245_output: 3b107b6c
/reid_model/backbone/layers/layers.0/blocks.0/mlp/fc2/MatMul_output_0: 3c979099
reid_model.backbone.layers.0.blocks.0.mlp.fc2.bias_output: 3b8ec1e2
ONNXTRT_Broadcast_247_output: 3b8ec1e2
/reid_model/backbone/layers/layers.0/blocks.0/mlp/fc2/Add_output_0: 3ce3b81e
/reid_model/backbone/layers/layers.0/blocks.0/Add_1_output_0: 3d16e4ce
ONNXTRT_Broadcast_3269_output: 3c367d3d
/reid_model/backbone/layers/layers.1/blocks.1/mlp/fc2/Add_output_0: 3d416bec
/reid_model/backbone/layers/layers.3/blocks.0/attn/Reshape_1_output_0: 3ca622cc
ONNXTRT_Broadcast_2350_output: 3c47ab0f
ONNXTRT_Broadcast_2356_output: 3b810a14
ONNXTRT_Broadcast_4316_output: 3ccb5fb3
ONNXTRT_Broadcast_1857_output: 3c810a14
/reid_model/backbone/layers/layers.2/blocks.0/Pad_output_0: 3c60fff8
/reid_model/backbone/layers/layers.1/blocks.1/mlp/fc2/MatMul_output_0: 3cd024da
/reid_model/backbone/layers/layers.0/blocks.0/Reshape_9_output_0: 3d16e4ce
/reid_model/backbone/layers/layers.2/blocks.5/attn/softmax/Softmax_output: 3ba150e7
onnx::Add_4686_output: 3d3a3575
/reid_model/backbone/layers/layers.2/blocks.1/attn/Constant_9_output_0_output: 3ab67d3d
/reid_model/backbone/layers/layers.1/blocks.0/attn/Reshape_output_0: 3d1105ac
/reid_model/backbone/layers/layers.2/blocks.3/Slice_9_output_0: 3ce1bca1
/reid_model/backbone/layers/layers.2/blocks.0/attn/Split_output_2: 3c99e644
ONNXTRT_Broadcast_3058_output: 3b6dfa79
/reid_model/backbone/layers/layers.1/blocks.1/Slice_1_output_0: 3d40db36
/reid_model/backbone/layers/layers.2/blocks.2/norm1/ReduceMean_output_0: 3a2e6e5c
/reid_model/backbone/layers/layers.2/blocks.0/mlp/act/Add_output_0: 3c810b3b
/reid_model/backbone/layers/layers.1/blocks.1/attn/softmax/Softmax_output_0: 3b61e037
reid_model.backbone.layers.2.blocks.5.attn.proj.bias_output: 3bba1e55
ONNXTRT_Broadcast_3277_output: 3b719a9e
/reid_model/backbone/layers/layers.2/blocks.2/Slice_1_output_0: 3d04a33f
/reid_model/backbone/layers/layers.1/blocks.1/Concat_output_0: 3d40c000
/reid_model/backbone/layers/layers.2/blocks.4/norm2/Div_output_0: 3dedda2a
/reid_model/backbone/layers/layers.0/blocks.1/norm1/ReduceMean_output_0: 3bf550cc
/reid_model/backbone/layers/layers.0/blocks.1/norm1/Sub_output_0: 3d17eb2f
/reid_model/backbone/layers/layers.0/blocks.1/norm1/Constant_output_0_output: 3c810a14
ONNXTRT_Broadcast_254_output: 3c810a14
/reid_model/backbone/layers/layers.0/blocks.1/norm1/Pow_output_0: 3dfcc90b
/reid_model/backbone/layers/layers.0/blocks.1/norm1/ReduceMean_1_output_0: 3bdd3dca
/reid_model/backbone/layers/layers.0/blocks.1/norm1/Constant_1_output_0_output: 33a9226d
ONNXTRT_Broadcast_256_output: 33a9226d
/reid_model/backbone/layers/layers.0/blocks.1/norm1/Add_output_0: 3bdd3e5e
/reid_model/backbone/layers/layers.0/blocks.1/norm1/Sqrt_output_0: 3c0439a2
/reid_model/backbone/layers/layers.0/blocks.1/norm1/Div_output_0: 3d81b9a2
reid_model.backbone.layers.0.blocks.1.norm1.weight_output: 3c6e6cfd
ONNXTRT_Broadcast_258_output: 3c6e6cfd
/reid_model/backbone/layers/layers.0/blocks.1/norm1/Mul_output_0: 3d3f8e93
reid_model.backbone.layers.0.blocks.1.norm1.bias_output: 3c563018
ONNXTRT_Broadcast_260_output: 3c563018
/reid_model/backbone/layers/layers.0/blocks.1/norm1/Add_1_output_0: 3d33182d
/reid_model/backbone/layers/layers.2/blocks.3/mlp/act/Mul_1_output_0: 3c9f693d
ONNXTRT_Broadcast_1310_output: 3ab67d3d
reid_model.backbone.layers.1.blocks.0.attn.proj.bias_output: 3b8b6987
/reid_model/backbone/layers/layers.2/blocks.0/attn/Split_output_0: 3d2e6a51
/reid_model/backbone/layers/layers.3/blocks.0/norm2/Mul_output_0: 3e15be28
reid_model.backbone.layers.2.blocks.5.mlp.fc1.bias_output: 3c3c882d
/reid_model/backbone/layers/layers.2/blocks.3/Slice_2_output_0: 3d181ed5
/reid_model/backbone/layers/layers.3/blocks.0/attn/Transpose_output_0: 3d2c8fae
/reid_model/backbone/layers/layers.2/blocks.4/attn/proj/MatMul_output_0: 3d100d19
/reid_model/backbone/layers/layers.1/blocks.1/norm2/Mul_output_0: 3d7609bc
/reid_model/backbone/layers/layers.2/blocks.1/Transpose_1_output_0: 3cc22443
/reid_model/backbone/layers/layers.2/blocks.2/norm1/Mul_output_0: 3d0a9e79
ONNXTRT_Broadcast_3176_output: 3ab67d3d
/reid_model/backbone/layers/layers.1/blocks.1/Concat_11_output_0: 3c90d9fa
/reid_model/backbone/layers/layers.2/blocks.5/attn/softmax/Softmax_output_0: 3ba150e7
/reid_model/backbone/layers/layers.1/blocks.0/attn/qkv/Add_output_0: 3d1105ac
ONNXTRT_Broadcast_1750_output: 3b37f7e3
/reid_model/backbone/layers/layers.2/blocks.5/norm1/Div_output_0: 3dfbbbe6
reid_model.backbone.layers.2.blocks.1.norm2.bias_output: 3bbd4f8b
ONNXTRT_Broadcast_2101_output: 3c835522
ONNXTRT_Broadcast_1673_output: 3b46bcaa
/reid_model/backbone/layers/layers.3/blocks.1/attn/MatMul_output_0: 3da0cb29
/reid_model/backbone/layers/layers.2/downsample/norm/Sqrt_output_0: 3c2d98e7
/reid_model/backbone/layers/layers.2/blocks.2/norm2/ReduceMean_1_output_0: 3c501b54
/reid_model/backbone/layers/layers.2/blocks.0/norm1/Div_output_0: 3d841b52
/reid_model/backbone/layers/layers.2/blocks.1/Slice_6_output_0: 3c9c0eee
/reid_model/backbone/layers/layers.3/blocks.0/Transpose_1_output_0: 3cfb5db6
ONNXTRT_Broadcast_1042_output: 3c810a14
/reid_model/backbone/layers/layers.3/blocks.0/attn/qkv/MatMul_output_0: 3d14e0c8
/reid_model/backbone/layers/layers.3/blocks.1/Add_1_output_0: 3f142981
/reid_model/backbone/layers/layers.2/blocks.4/norm2/Add_1_output_0: 3dc447fa
/reid_model/backbone/layers/layers.1/blocks.1/norm1/ReduceMean_output_0: 3b3c198c
/reid_model/backbone/layers/layers.2/blocks.5/Concat_1_output_0: 3d1fabfe
/reid_model/backbone/layers/layers.2/blocks.1/norm1/ReduceMean_1_output_0: 3b95347c
/reid_model/backbone/layers/layers.3/blocks.1/norm2/Div_output_0: 3e0828ad
/reid_model/backbone/layers/layers.2/blocks.4/norm1/Add_1_output_0: 3d5d6583
/reid_model/backbone/layers/layers.3/blocks.0/attn/softmax/Softmax_output_0: 3b810eb2
onnx::MatMul_4899_output: 3b6dfa79
/reid_model/backbone/layers/layers.0/blocks.1/Slice_output_0: 3d32bd13
ONNXTRT_Broadcast_4182_output: 3b05324a
/reid_model/backbone/layers/layers.2/blocks.1/attn/Constant_13_output_0_output: 3f499fbf
onnx::MatMul_4836_output: 3adb3af8
ONNXTRT_Broadcast_4293_output: 3d3310fd
/reid_model/backbone/layers/layers.2/blocks.4/norm2/Mul_output_0: 3dbfe313
ONNXTRT_Broadcast_4078_output: 3c8ccf45
reid_model.backbone.layers.2.blocks.4.mlp.fc1.bias_output: 3c1f2eee
reid_model.backbone.layers.1.blocks.1.attn.qkv.bias_output: 3c530374
/reid_model/backbone/norm/Pow_output_0: 41b0195c
/reid_model/backbone/layers/layers.2/blocks.1/attn/Add_output_0: 3dc15a55
/reid_model/backbone/layers/layers.2/blocks.5/norm1/Pow_output_0: 41f4bc4e
ONNXTRT_Broadcast_1890_output: 3b23b464
/reid_model/backbone/layers/layers.3/blocks.1/norm2/Mul_output_0: 3e3229c7
ONNXTRT_Broadcast_3967_output: 3ca55786
/reid_model/backbone/layers/layers.1/blocks.1/attn/proj/MatMul_output_0: 3c1d9f9e
ONNXTRT_Broadcast_1537_output: 3c367d3d
ONNXTRT_Broadcast_3750_output: 3c3c882d
/reid_model/backbone/layers/layers.2/downsample/norm/Pow_output_0: 3e3db873
ONNXTRT_Broadcast_2133_output: 3acb8513
ONNXTRT_Broadcast_1069_output: 3c810a14
ONNXTRT_Broadcast_3884_output: 33a9226d
/reid_model/backbone/layers/layers.2/blocks.2/Reshape_2_output_0: 3cf7d011
/reid_model/backbone/layers/layers.3/blocks.0/Transpose_2_output_0: 3d145aa8
/reid_model/backbone/layers/layers.2/blocks.2/Reshape_9_output_0: 3daeecaa
/reid_model/backbone/layers/layers.2/blocks.3/Pad_output_0: 3d17411c
ONNXTRT_Broadcast_1539_output: 3c010a14
/reid_model/backbone/layers/layers.0/blocks.1/Slice_1_output_0: 3d34c02f
/reid_model/backbone/layers/layers.0/blocks.1/Concat_output_0: 3d33182d
onnx::MatMul_5026_output: 3b5d3027
/reid_model/backbone/layers/layers.1/blocks.0/attn/qkv/MatMul_output_0: 3d025e7c
ONNXTRT_Broadcast_3754_output: 3c010a14
/reid_model/backbone/layers/layers.2/blocks.0/Add_output_0: 3d26ccb4
/reid_model/backbone/layers/layers.3/blocks.1/attn/Reshape_output_0: 3d30d9bc
/reid_model/backbone/layers/layers.2/blocks.4/norm2/Constant_output_0_output: 3c810a14
ONNXTRT_Broadcast_3265_output: 3b2b90cb
/reid_model/backbone/layers/layers.2/blocks.2/mlp/act/Constant_output_0_output: 3c367d3d
ONNXTRT_Broadcast_2567_output: 3c3b82a1
/reid_model/backbone/layers/layers.1/blocks.1/Transpose_1_output_0: 3d40c000
/reid_model/backbone/layers/layers.2/blocks.2/mlp/act/Mul_output_0: 3cc886a6
ONNXTRT_Broadcast_2565_output: 3b051124
/reid_model/backbone/layers/layers.2/blocks.5/Reshape_7_output_0: 3dc206e6
/reid_model/backbone/layers/layers.2/blocks.4/norm1/Mul_output_0: 3d6a59bd
/reid_model/backbone/layers/layers.1/blocks.1/norm2/Sub_output_0: 3d795c63
ONNXTRT_Broadcast_4090_output: 3b599d3a
ONNXTRT_Broadcast_3533_output: 3b69193e
ONNXTRT_Broadcast_937_output: 3c8cbc10
onnx::MatMul_4709_output: 3b29767e
ONNXTRT_Broadcast_3050_output: 3c3362de
/reid_model/backbone/layers/layers.2/blocks.5/attn/Transpose_1_output_0: 3d2fb543
/reid_model/backbone/layers/layers.1/blocks.0/Transpose_2_output_0: 3c97b25e
/reid_model/backbone/layers/layers.1/blocks.1/mlp/act/Erf_output_0: 3c010a14
/reid_model/backbone/layers/layers.1/blocks.1/mlp/act/Constant_1_output_0_output: 3c010a14
ONNXTRT_Broadcast_1286_output: 3c530374
ONNXTRT_Broadcast_4307_output: 3c01d4cc
/reid_model/backbone/layers/layers.0/blocks.1/Slice_2_output_0: 3d33182d
/reid_model/backbone/layers/layers.1/blocks.0/attn/Transpose_2_output_0: 3c8dab16
/reid_model/backbone/layers/layers.1/blocks.1/norm1/Pow_output_0: 3d9dd7a5
ONNXTRT_Broadcast_1865_output: 3b05b318
ONNXTRT_Broadcast_2559_output: 33a9226d
ONNXTRT_Broadcast_2801_output: 3c7e26e7
onnx::Add_5024_output: 3dc8f7fc
/reid_model/backbone/layers/layers.3/blocks.1/attn/qkv/MatMul_output_0: 3d1da0a5
/reid_model/backbone/layers/layers.2/blocks.2/norm2/Constant_output_0_output: 3c810a14
/reid_model/backbone/layers/layers.2/blocks.2/norm2/ReduceMean_output_0: 3a5fa01e
/reid_model/backbone/layers/layers.2/blocks.3/norm2/Add_1_output_0: 3da05018
/reid_model/backbone/layers/layers.2/blocks.2/norm1/Constant_1_output_0_output: 33a9226d
/reid_model/backbone/layers/layers.2/blocks.1/Concat_1_output_0: 3cc22443
/reid_model/backbone/layers/layers.1/blocks.0/Slice_1_output_0: 3c97b25e
/reid_model/backbone/head/global_pool/pool/ReduceMean_output_0: 3cdd59d1
/reid_model/backbone/layers/layers.2/blocks.5/norm2/Div_output_0: 3e06dc49
reid_model.backbone.layers.2.blocks.3.mlp.fc2.bias_output: 3b5ebcf7
ONNXTRT_Broadcast_1877_output: 3b9848d6
/reid_model/backbone/layers/layers.2/blocks.1/attn/MatMul_1_output_0: 3c847fa3
ONNXTRT_Broadcast_3182_output: 3b0d8a55
ONNXTRT_Broadcast_1545_output: 3bb1c2c8
reid_model.backbone.layers.2.blocks.0.attn.qkv.bias_output: 3c8ff4a1
ONNXTRT_Broadcast_1525_output: 3c810a14
reid_model.backbone.layers.1.blocks.1.mlp.fc2.bias_output: 3bb1c2c8
ONNXTRT_Broadcast_4086_output: 3c010a14
ONNXTRT_Broadcast_969_output: 3b8b6987
/reid_model/backbone/layers/layers.2/blocks.3/Add_output_0: 3dc99026
/reid_model/backbone/layers/layers.0/blocks.1/Slice_3_output_0: 3d34c654
/reid_model/backbone/layers/layers.0/blocks.1/Concat_1_output_0: 3d33182d
ONNXTRT_Broadcast_2360_output: 3b7e9d96
reid_model.backbone.layers.2.blocks.1.mlp.fc2.bias_output: 3b7e9d96
/reid_model/backbone/layers/layers.2/blocks.1/mlp/fc2/MatMul_output_0: 3cf0258f
/reid_model/backbone/layers/layers.2/blocks.4/norm1/ReduceMean_output_0: 3a879c9c
reid_model.backbone.layers.2.blocks.3.attn.qkv.bias_output: 3c7e26e7
/reid_model/backbone/layers/layers.2/blocks.2/norm1/Add_1_output_0: 3cf7d011
/reid_model/backbone/layers/layers.1/blocks.1/Slice_3_output_0: 3d4719ba
/reid_model/backbone/layers/layers.2/blocks.3/mlp/fc1/MatMul_output_0: 3d56d1ce
/reid_model/backbone/layers/layers.3/blocks.1/attn/Split_output_2: 3d176e7d
/reid_model/backbone/layers/layers.1/blocks.0/norm2/Constant_1_output_0_output: 33a9226d
/reid_model/backbone/layers/layers.3/blocks.1/Transpose_1_output_0: 3d33f359
ONNXTRT_Broadcast_3054_output: 3c010a14
/reid_model/backbone/layers/layers.1/blocks.1/mlp/act/Mul_1_output_0: 3c811644
/reid_model/backbone/layers/layers.2/blocks.1/attn/Split_output_2: 3ca01f2c
/reid_model/backbone/layers/layers.3/downsample/norm/Div_output_0: 3e10ff14
/reid_model/backbone/layers/layers.3/blocks.1/mlp/act/Constant_2_output_0_output: 3b810a14
/reid_model/backbone/layers/layers.2/blocks.1/Add_output_0: 3d4d5028
/reid_model/backbone/layers/layers.2/blocks.3/Slice_6_output_0: 3d01d6c3
/reid_model/backbone/layers/layers.2/blocks.0/norm2/Pow_output_0: 3dd2019a
/reid_model/backbone/layers/layers.3/blocks.1/mlp/act/Mul_output_0: 3df81c1f
ONNXTRT_Broadcast_3888_output: 3aef5848
ONNXTRT_Broadcast_3275_output: 3b8e5f5d
/reid_model/backbone/layers/layers.1/blocks.1/mlp/fc1/Add_output_0: 3d3e0b68
/reid_model/backbone/layers/layers.2/blocks.1/mlp/act/Mul_1_output_0: 3c5c1f5f
/reid_model/backbone/layers/layers.2/blocks.3/Concat_12_output_0: 3d01d6c3
/reid_model/backbone/layers/layers.1/blocks.1/Add_1_output_0: 3dc5cc5b
ONNXTRT_Broadcast_1752_output: 3c8ff4a1
ONNXTRT_Broadcast_1541_output: 3b810a14
/reid_model/backbone/layers/layers.2/blocks.4/attn/Transpose_output_0: 3d328465
/reid_model/backbone/layers/layers.2/blocks.3/attn/Squeeze_2_output_0: 3cec579d
ONNXTRT_Broadcast_2373_output: 3b671b82
/reid_model/backbone/layers/layers.2/blocks.2/norm1/Sub_output_0: 3d5ff964
/reid_model/backbone/layers/layers.1/blocks.1/Slice_2_output_0: 3d408b24
ONNXTRT_Broadcast_3044_output: 3c2ee843
/reid_model/backbone/layers/layers.2/blocks.5/Concat_11_output_0: 3dc206e6
/reid_model/backbone/layers/layers.2/blocks.0/norm1/Sub_output_0: 3d01ef85
ONNXTRT_Broadcast_3740_output: 3c810a14
/reid_model/backbone/layers/layers.1/blocks.0/attn/Transpose_1_output_0: 3d200584
/reid_model/backbone/layers/layers.2/blocks.3/norm1/Add_1_output_0: 3d17411c
/reid_model/backbone/layers/layers.2/blocks.3/attn/Add_output_0: 3dc80967
/reid_model/backbone/layers/layers.3/blocks.1/attn/proj/Add_output_0: 3e250282
reid_model.backbone.layers.3.blocks.1.mlp.fc1.bias_output: 3c50f109
/reid_model/backbone/layers/layers.1/blocks.0/Reshape_5_output_0: 3c97b25e
ONNXTRT_Broadcast_1859_output: 33a9226d
/reid_model/backbone/layers/layers.2/blocks.0/attn/Squeeze_2_output_0: 3c99e644
/reid_model/backbone/layers/layers.2/blocks.1/norm2/ReduceMean_output_0: 3a168edb
/reid_model/backbone/layers/layers.3/blocks.0/mlp/fc1/Add_output_0: 3e6a11ad
ONNXTRT_Broadcast_3150_output: 3b131b33
/reid_model/backbone/layers/layers.3/blocks.1/mlp/act/Erf_output_0: 3c010a14
/reid_model/backbone/layers/layers.2/blocks.5/attn/Split_output_0: 3d26fd91
ONNXTRT_Broadcast_2125_output: 3ab67d3d
/reid_model/backbone/layers/layers.3/blocks.0/Add_1_output_0: 3e1dbe41
/reid_model/backbone/layers/layers.1/blocks.1/attn/softmax/Softmax_output: 3b61e037
/reid_model/backbone/layers/layers.1/blocks.1/mlp/fc1/MatMul_output_0: 3d232fbd
ONNXTRT_Broadcast_3525_output: 3ab67d3d
ONNXTRT_Broadcast_1060_output: 3af0d63d
/reid_model/backbone/layers/layers.1/blocks.0/mlp/act/Erf_output_0: 3c010a14
/reid_model/backbone/layers/layers.1/blocks.1/norm2/Pow_output_0: 3daaf541
onnx::MatMul_4916_output: 3b131b33
/reid_model/backbone/layers/layers.1/blocks.1/norm2/ReduceMean_1_output_0: 3c09f5e3
/reid_model/backbone/layers/layers.2/blocks.5/Reshape_3_output_0: 3d1fabfe
onnx::Add_5066_output: 3dfa355f
ONNXTRT_Broadcast_1527_output: 33a9226d
/reid_model/backbone/layers/layers.2/blocks.2/attn/Transpose_2_output_0: 3c96c4e1
/reid_model/backbone/layers/layers.3/blocks.1/attn/Squeeze_output_0: 3d33b01f
/reid_model/backbone/layers/layers.2/blocks.3/Slice_3_output_0: 3d15a06e
onnx::MatMul_5041_output: 3b092561
/reid_model/backbone/layers/layers.2/blocks.3/Concat_1_output_0: 3d17411c
ONNXTRT_Broadcast_1075_output: 3c73a3ac
/reid_model/backbone/layers/layers.2/blocks.4/attn/Split_output_1: 3d242f13
/reid_model/backbone/layers/layers.1/blocks.0/attn/proj/Add_output_0: 3c97b25e
ONNXTRT_Broadcast_1533_output: 3b0530fc
onnx::MatMul_5042_output: 3b599d3a
ONNXTRT_Broadcast_3040_output: 3c810a14
/reid_model/backbone/layers/layers.2/blocks.0/attn/proj/Add_output_0: 3ccd0cc7
onnx::MatMul_4708_output: 3b0530fc
/reid_model/backbone/layers/layers.1/blocks.1/attn/Split_output_2: 3ccfc2f0
reid_model.backbone.layers.1.blocks.1.mlp.fc1.bias_output: 3c3291ab
onnx::MatMul_4662_output: 3af0d63d
/reid_model/backbone/layers/layers.1/blocks.1/norm2/Sqrt_output_0: 3c022889
/reid_model/backbone/layers/layers.3/blocks.0/Reshape_4_output_0: 3cfb5db6
/reid_model/backbone/layers/layers.2/blocks.0/Reshape_5_output_0: 3ccd0cc7
ONNXTRT_Broadcast_1784_output: 3b5a91a6
ONNXTRT_Broadcast_1058_output: 3b810a14
/reid_model/backbone/layers/layers.1/blocks.0/norm2/Add_output_0: 3baed55e
/reid_model/backbone/layers/layers.1/blocks.1/norm1/Constant_1_output_0_output: 33a9226d
/reid_model/backbone/layers/layers.2/blocks.4/attn/Transpose_2_output_0: 3cd66bd9
/reid_model/backbone/layers/layers.2/blocks.4/Slice_2_output_0: 3d81d060
/reid_model/backbone/layers/layers.3/blocks.1/norm1/Div_output_0: 3e0c7674
/reid_model/backbone/layers/layers.2/blocks.1/norm2/Add_output_0: 3bbbabb3
/reid_model/neck/neck.0/MatMul_output_0: 3d90e6ab
/reid_model/backbone/layers/layers.1/blocks.0/Add_1_output_0: 3d397a91
/reid_model/backbone/layers/layers.2/blocks.3/norm2/Constant_output_0_output: 3c810a14
reid_model.backbone.norm.weight_output: 3ccb5fb3
/reid_model/backbone/layers/layers.2/blocks.4/attn/Constant_9_output_0_output: 3ab67d3d
/reid_model/backbone/layers/layers.0/blocks.1/Pad_output_0: 3d33182d
/reid_model/backbone/layers/layers.2/blocks.1/Slice_7_output_0: 3ca0a001
/reid_model/backbone/layers/layers.2/blocks.3/Slice_1_output_0: 3d1632d8
/reid_model/backbone/layers/layers.2/blocks.3/Concat_output_0: 3d17411c
/reid_model/backbone/layers/layers.2/downsample/Reshape_2_output_0: 3dc5cc5b
/reid_model/backbone/layers/layers.2/blocks.1/attn/Transpose_output_0: 3d246456
/reid_model/backbone/layers/layers.3/blocks.1/norm2/Add_1_output_0: 3e3bd403
ONNXTRT_Broadcast_1529_output: 3c6096c7
/reid_model/backbone/layers/layers.2/blocks.3/mlp/fc2/Add_output_0: 3cfee329
/reid_model/backbone/layers/layers.2/blocks.2/attn/Split_output_1: 3d22ea4e
ONNXTRT_Broadcast_1535_output: 3c3291ab
ONNXTRT_Broadcast_3760_output: 3b8643fb
/reid_model/backbone/layers/layers.1/blocks.0/norm2/Div_output_0: 3d8d2cdf
/reid_model/backbone/layers/layers.3/blocks.0/mlp/act/Constant_output_0_output: 3c367d3d
ONNXTRT_Broadcast_3868_output: 3c810a14
/reid_model/backbone/layers/layers.2/blocks.5/Slice_3_output_0: 3d7254ec
/reid_model/backbone/layers/layers.2/blocks.5/Slice_10_output_0: 3dc2c610
/reid_model/backbone/layers/layers.2/blocks.1/attn/Add_1_output_0: 3f5c6fcd
/reid_model/backbone/layers/layers.2/blocks.4/norm2/Constant_1_output_0_output: 33a9226d
/reid_model/backbone/layers/layers.1/blocks.0/Reshape_9_output_0: 3d397a91
/reid_model/backbone/layers/layers.3/blocks.0/mlp/fc1/MatMul_output_0: 3e66b269
/reid_model/backbone/layers/layers.3/downsample/norm/Mul_output_0: 3cf74338
/reid_model/backbone/layers/layers.2/blocks.5/attn/MatMul_output_0: 3db59fa9
ONNXTRT_Broadcast_4082_output: 3c06989f
/reid_model/backbone/layers/layers.2/blocks.5/Slice_7_output_0: 3dae3d02
/reid_model/backbone/layers/layers.2/blocks.1/norm1/Constant_1_output_0_output: 33a9226d
ONNXTRT_Broadcast_4092_output: 3b97c442
ONNXTRT_Broadcast_3042_output: 33a9226d
reid_model.backbone.layers.2.blocks.3.mlp.fc1.bias_output: 3c3362de
/reid_model/backbone/layers/layers.2/blocks.1/attn/proj/Add_output_0: 3c9c0eee
/reid_model/backbone/layers/layers.2/blocks.1/attn/proj/MatMul_output_0: 3c5850f2
/reid_model/backbone/layers/layers.2/blocks.2/Reshape_3_output_0: 3cf7d011
/reid_model/backbone/layers/layers.2/blocks.3/mlp/act/Div_output_0: 3d45ecf0
reid_model.backbone.layers.2.blocks.3.norm1.weight_output: 3bf5a445
/reid_model/backbone/layers/layers.2/blocks.4/mlp/act/Add_output_0: 3c810a14
/reid_model/backbone/layers/layers.2/blocks.0/norm2/Sub_output_0: 3d297102
/reid_model/backbone/layers/layers.0/blocks.1/Reshape_2_output_0: 3d33182d
/reid_model/backbone/layers/layers.0/blocks.1/Transpose_1_output_0: 3d33182d
/reid_model/backbone/layers/layers.1/blocks.1/norm1/Div_output_0: 3d9ea33f
/reid_model/Constant_output_0_output: 280de15b
/reid_model/backbone/layers/layers.2/blocks.5/attn/Squeeze_output_0: 3d26fd91
/reid_model/backbone/layers/layers.2/blocks.1/mlp/act/Erf_output_0: 3c010a14
/reid_model/backbone/layers/layers.3/blocks.0/norm1/Constant_output_0_output: 3c810a14
ONNXTRT_Broadcast_3263_output: 3baee5e1
/reid_model/backbone/layers/layers.0/blocks.1/Reshape_3_output_0: 3d33182d
/reid_model/backbone/layers/layers.2/blocks.3/norm1/Constant_1_output_0_output: 33a9226d
/reid_model/backbone/layers/layers.1/blocks.1/attn/MatMul_1_output_0: 3c9f00b1
/reid_model/backbone/layers/layers.3/blocks.1/norm2/ReduceMean_1_output_0: 3ee3a7bd
/reid_model/backbone/layers/layers.2/blocks.4/Reshape_4_output_0: 3d5d6583
/reid_model/backbone/layers/layers.2/blocks.5/norm1/Constant_1_output_0_output: 33a9226d
/reid_model/backbone/layers/layers.0/blocks.1/Reshape_4_output_0: 3d33182d
onnx::MatMul_4762_output: 3b05b318
/reid_model/backbone/layers/layers.1/blocks.1/attn/MatMul_output_0: 3df0a7fd
ONNXTRT_Broadcast_2099_output: 3b6dcc78
/reid_model/backbone/layers/layers.2/blocks.0/attn/Add_output_0: 3dbe3917
/reid_model/backbone/layers/layers.2/blocks.5/attn/Split_output_1: 3d2fb543
/reid_model/backbone/layers/layers.2/blocks.1/norm1/Sub_output_0: 3d1fff38
/reid_model/backbone/layers/layers.2/blocks.1/Slice_9_output_0: 3c9e0ee6
/reid_model/backbone/layers/layers.2/blocks.3/mlp/act/Constant_output_0_output: 3c367d3d
onnx::MatMul_4578_output: 3b58d67b
ONNXTRT_Broadcast_469_output: 3b58d67b
/reid_model/backbone/layers/layers.0/blocks.1/attn/qkv/MatMul_output_0: 3d043421
reid_model.backbone.layers.0.blocks.1.attn.qkv.bias_output: 3c6fa4b0
ONNXTRT_Broadcast_471_output: 3c6fa4b0
/reid_model/backbone/layers/layers.0/blocks.1/attn/qkv/Add_output_0: 3d0f0262
reid_model.backbone.layers.2.blocks.1.norm1.bias_output: 3b23b464
ONNXTRT_Broadcast_2371_output: 3c0226da
/reid_model/backbone/layers/layers.2/blocks.5/Reshape_5_output_0: 3dc206e6
/reid_model/backbone/layers/layers.2/blocks.5/Concat_output_0: 3d1fabfe
/reid_model/backbone/layers/layers.3/blocks.1/attn/Constant_9_output_0_output: 3ab67d3d
ONNXTRT_Broadcast_2352_output: 3c367d3d
/reid_model/backbone/layers/layers.3/blocks.0/Reshape_5_output_0: 3d145aa8
/reid_model/backbone/layers/layers.1/blocks.1/norm2/Constant_1_output_0_output: 33a9226d
/reid_model/backbone/layers/layers.0/blocks.1/attn/Reshape_output_0: 3d0f0262
/reid_model/backbone/layers/layers.0/blocks.1/attn/Transpose_output_0: 3d0f0262
/reid_model/backbone/layers/layers.2/blocks.0/mlp/act/Mul_output_0: 3cdae12f
reid_model.backbone.layers.3.blocks.1.norm1.bias_output: 3b1074b1
/reid_model/backbone/layers/layers.2/blocks.5/mlp/act/Div_output_0: 3e1d16d5
/reid_model/backbone/layers/layers.3/blocks.0/attn/Squeeze_2_output_0: 3cf70724
/reid_model/backbone/layers/layers.2/blocks.4/norm1/Pow_output_0: 40c06c3c
/reid_model/backbone/layers/layers.3/blocks.0/norm1/Sqrt_output_0: 3d001cdc
/reid_model/backbone/layers/layers.0/blocks.1/attn/Split_output_0: 3d14a3f7
/reid_model/backbone/layers/layers.1/blocks.0/attn/Constant_9_output_0_output: 3ab67d3d
ONNXTRT_Broadcast_1888_output: 3bbfb4e2
/reid_model/backbone/layers/layers.3/blocks.0/Reshape_9_output_0: 3e1dbe41
/reid_model/backbone/layers/layers.0/blocks.1/attn/Split_output_1: 3d1d0570
ONNXTRT_Broadcast_2135_output: 3b8c59ca
/reid_model/backbone/layers/layers.3/blocks.1/Add_output_0: 3e856606
/reid_model/backbone/layers/layers.2/blocks.5/Transpose_2_output_0: 3dc206e6
/reid_model/backbone/layers/layers.0/blocks.1/attn/Split_output_2: 3cb8646e
/reid_model/backbone/layers/layers.2/downsample/norm/Add_1_output_0: 3c9eadc4
/reid_model/backbone/layers/layers.0/blocks.1/attn/Squeeze_output_0: 3d14a3f7
ONNXTRT_Broadcast_2358_output: 3b15c97a
/reid_model/backbone/layers/layers.0/blocks.1/attn/Squeeze_1_output_0: 3d1d0570
ONNXTRT_Broadcast_1320_output: 3b8ead02
/reid_model/backbone/layers/layers.0/blocks.1/attn/Squeeze_2_output_0: 3cb8646e
/reid_model/backbone/layers/layers.0/blocks.1/attn/Constant_9_output_0_output: 3ab67d3d
ONNXTRT_Broadcast_495_output: 3ab67d3d
/reid_model/backbone/layers/layers.0/blocks.1/attn/Mul_output_0: 3bd2359a
/reid_model/backbone/layers/layers.0/blocks.1/attn/Transpose_1_output_0: 3d1d0570
/reid_model/backbone/layers/layers.0/blocks.1/attn/MatMul_output_0: 3df30776
onnx::Add_4585_output: 3d1a68bc
/reid_model/backbone/layers/layers.0/blocks.1/attn/Add_output_0: 3e017003
/reid_model/backbone/layers/layers.3/downsample/norm/Sub_output_0: 3ebf8720
/reid_model/backbone/layers/layers.1/blocks.1/norm2/Add_output_0: 3c09f63c
onnx::MatMul_5059_output: 3b05324a
/reid_model/backbone/layers/layers.2/blocks.1/Slice_2_output_0: 3cbcbd90
/reid_model/backbone/layers/layers.2/blocks.1/norm1/Div_output_0: 3d97d41a
ONNXTRT_Broadcast_3060_output: 3b5ebcf7
onnx::MatMul_4940_output: 3b2b90cb
/reid_model/backbone/layers/layers.2/blocks.5/attn/proj/Add_output_0: 3dc206e6
/reid_model/backbone/layers/layers.0/blocks.1/attn/Reshape_1_output_0: 3e017003
/reid_model/backbone/layers/layers.0/blocks.1/attn/Constant_13_output_0_output: 3f499fbf
/reid_model/backbone/layers/layers.0/blocks.1/attn/Add_1_output_0: 3f54b618
/reid_model/backbone/layers/layers.3/blocks.1/attn/softmax/Softmax_output: 3b7f5f2b
ONNXTRT_Broadcast_2590_output: 3b985da8
/reid_model/backbone/layers/layers.2/blocks.4/Transpose_2_output_0: 3d81d060
onnx::MatMul_4763_output: 3b0b374d
/reid_model/backbone/layers/layers.2/blocks.1/norm2/Div_output_0: 3d9f8107
onnx::MatMul_4794_output: 3acb8513
reid_model.backbone.layers.2.blocks.3.norm1.bias_output: 3b985da8
/reid_model/backbone/layers/layers.0/blocks.1/attn/Reshape_2_output_0: 3f54b618
/reid_model/backbone/layers/layers.0/blocks.1/attn/softmax/Softmax_output: 3b78fae3
/reid_model/backbone/layers/layers.0/blocks.1/attn/softmax/Softmax_output_0: 3b78fae3
/reid_model/backbone/layers/layers.1/blocks.1/norm1/Add_output_0: 3bc90fc9
/reid_model/backbone/layers/layers.3/downsample/Pad_output_0: 3ebc76e3
/reid_model/backbone/layers/layers.0/blocks.1/attn/MatMul_1_output_0: 3c826e66
/reid_model/backbone/layers/layers.0/blocks.1/attn/Transpose_2_output_0: 3c826e66
/reid_model/backbone/layers/layers.2/blocks.1/Reshape_4_output_0: 3cc22443
/reid_model/backbone/layers/layers.1/blocks.1/Pad_output_0: 3d40c000
reid_model.backbone.layers.2.blocks.0.attn.proj.bias_output: 3b5a91a6
/reid_model/backbone/layers/layers.2/blocks.3/norm1/Mul_output_0: 3d1b589e
onnx::MatMul_4661_output: 3b14f92d
/reid_model/backbone/layers/layers.2/blocks.4/norm1/Div_output_0: 3dd52758
/reid_model/backbone/layers/layers.0/blocks.1/attn/Reshape_3_output_0: 3c826e66
onnx::MatMul_4592_output: 3afbb9a1
ONNXTRT_Broadcast_503_output: 3afbb9a1
/reid_model/backbone/layers/layers.0/blocks.1/attn/proj/MatMul_output_0: 3c327279
reid_model.backbone.layers.0.blocks.1.attn.proj.bias_output: 3b5fcb22
ONNXTRT_Broadcast_505_output: 3b5fcb22
/reid_model/backbone/layers/layers.0/blocks.1/attn/proj/Add_output_0: 3c491d42
/reid_model/backbone/layers/layers.1/blocks.1/Reshape_2_output_0: 3d40c000
/reid_model/backbone/layers/layers.2/blocks.3/norm1/Div_output_0: 3dd3d31d
/reid_model/backbone/layers/layers.2/blocks.5/Add_output_0: 3e8625a0
/reid_model/backbone/layers/layers.2/blocks.1/Slice_8_output_0: 3c98b616
ONNXTRT_Broadcast_2588_output: 3bf5a445
/reid_model/backbone/layers/layers.2/blocks.3/norm1/Add_output_0: 3d1273f4
/reid_model/backbone/layers/layers.0/blocks.1/Reshape_5_output_0: 3c491d42
/reid_model/backbone/layers/layers.2/blocks.4/norm1/Add_output_0: 3d7dbb08
/reid_model/backbone/layers/layers.2/blocks.3/norm1/ReduceMean_output_0: 3a7abdd2
/reid_model/backbone/layers/layers.2/blocks.3/norm1/Pow_output_0: 3f32abb0
ONNXTRT_Broadcast_4305_output: 3b810a14
/reid_model/backbone/layers/layers.2/blocks.4/mlp/act/Constant_output_0_output: 3c367d3d
/reid_model/ReduceL2_output_0: 3e39fe7f
/reid_model/backbone/layers/layers.1/blocks.0/Transpose_1_output_0: 3cc475eb
/reid_model/backbone/layers/layers.2/blocks.3/norm1/ReduceMean_1_output_0: 3d1273ea
ONNXTRT_Broadcast_2586_output: 33a9226d
/reid_model/backbone/layers/layers.2/blocks.3/norm1/Constant_output_0_output: 3c810a14
reid_model.backbone.layers.2.blocks.3.norm2.bias_output: 3b9d44e5
/reid_model/backbone/layers/layers.2/blocks.0/Reshape_2_output_0: 3c60fff8
ONNXTRT_Broadcast_1318_output: 3ab2a193
/reid_model/backbone/layers/layers.1/blocks.1/Concat_1_output_0: 3d40c000
/reid_model/backbone/layers/layers.0/blocks.1/Reshape_6_output_0: 3c491d42
/reid_model/backbone/layers/layers.0/blocks.1/Transpose_2_output_0: 3c491d42
ONNXTRT_Broadcast_3052_output: 3c367d3d
/reid_model/backbone/layers/layers.2/blocks.1/norm1/Constant_output_0_output: 3c810a14
/reid_model/backbone/layers/layers.2/blocks.1/mlp/fc2/Add_output_0: 3c8e218d
/reid_model/backbone/layers/layers.1/blocks.1/Reshape_5_output_0: 3c90d9fa
/reid_model/backbone/layers/layers.2/blocks.5/norm1/Add_output_0: 3e20407e
/reid_model/backbone/layers/layers.2/blocks.0/mlp/act/Constant_output_0_output: 3c367d3d
/reid_model/backbone/layers/layers.1/blocks.0/mlp/act/Constant_1_output_0_output: 3c010a14
ONNXTRT_Broadcast_2563_output: 3b850a4b
/reid_model/backbone/layers/layers.0/blocks.1/Reshape_7_output_0: 3c491d42
/reid_model/backbone/norm/Add_1_output_0: 3d841177
ONNXTRT_Broadcast_4084_output: 3c367d3d
/reid_model/backbone/layers/layers.2/blocks.4/attn/Squeeze_2_output_0: 3d1d18a1
/reid_model/backbone/layers/layers.2/blocks.5/norm1/ReduceMean_output_0: 3b000093
/reid_model/backbone/layers/layers.1/blocks.0/mlp/fc1/Add_output_0: 3d488da6
/reid_model/backbone/layers/layers.2/blocks.5/attn/Reshape_output_0: 3d2c8206
ONNXTRT_Broadcast_4214_output: 3bc720fe
/reid_model/backbone/layers/layers.2/blocks.5/norm2/Constant_output_0_output: 3c810a14
ONNXTRT_Broadcast_1869_output: 3c367d3d
onnx::MatMul_4809_output: 3b0d3864
reid_model.backbone.layers.3.blocks.1.norm2.weight_output: 3d3310fd
reid_model.backbone.layers.2.blocks.5.norm1.bias_output: 3be91466
onnx::MatMul_4988_output: 3b8f8aee
/reid_model/backbone/layers/layers.1/blocks.1/attn/Squeeze_2_output_0: 3ccfc2f0
/reid_model/backbone/layers/layers.3/blocks.0/norm1/ReduceMean_output_0: 393afaf3
/reid_model/backbone/layers/layers.2/blocks.5/norm2/Pow_output_0: 41d33cbf
/reid_model/backbone/layers/layers.3/blocks.1/attn/Squeeze_1_output_0: 3d265aec
/reid_model/backbone/layers/layers.1/blocks.0/mlp/act/Mul_1_output_0: 3c3c7f77
reid_model.backbone.layers.1.blocks.1.attn.proj.bias_output: 3b8ead02
ONNXTRT_Broadcast_3742_output: 33a9226d
/reid_model/backbone/layers/layers.2/blocks.1/Concat_output_0: 3cc22443
/reid_model/backbone/layers/layers.2/blocks.4/mlp/act/Erf_output_0: 3c010a14
/reid_model/backbone/layers/layers.2/blocks.5/Slice_1_output_0: 3d6f57c9
/reid_model/backbone/layers/layers.1/blocks.1/attn/Split_output_1: 3d33339b
/reid_model/backbone/layers/layers.2/blocks.1/attn/Transpose_2_output_0: 3c847fa3
reid_model.backbone.layers.2.blocks.4.attn.proj.bias_output: 3b917348
/reid_model/backbone/layers/layers.2/blocks.0/norm2/Add_1_output_0: 3d2c860f
/reid_model/backbone/layers/layers.0/blocks.1/Slice_5_output_0: 3c491d42
/reid_model/backbone/layers/layers.2/blocks.0/norm1/Constant_1_output_0_output: 33a9226d
/reid_model/backbone/layers/layers.3/blocks.1/norm2/Sub_output_0: 3e8564a3
/reid_model/backbone/layers/layers.3/blocks.1/Reshape_5_output_0: 3e250282
ONNXTRT_Broadcast_3261_output: 3c5e01f6
ONNXTRT_Broadcast_1044_output: 33a9226d
/reid_model/backbone/layers/layers.2/blocks.1/norm1/Sqrt_output_0: 3bc399c9
/reid_model/backbone/layers/layers.2/blocks.5/Reshape_8_output_0: 3e8625a0
/reid_model/backbone/layers/layers.1/blocks.1/norm2/ReduceMean_output_0: 3b76dfd0
/reid_model/backbone/layers/layers.2/downsample/norm/ReduceMean_1_output_0: 3c57316f
/reid_model/backbone/layers/layers.1/blocks.1/mlp/act/Div_output_0: 3d0661bd
/reid_model/backbone/layers/layers.1/blocks.1/norm2/Constant_output_0_output: 3c810a14
reid_model.backbone.layers.1.blocks.1.norm1.bias_output: 3c73a3ac
/reid_model/neck/neck.1/BatchNormalization_output: 3d056162
/reid_model/backbone/layers/layers.3/downsample/norm/Pow_output_0: 43328d60
/reid_model/backbone/layers/layers.2/blocks.1/mlp/act/Constant_2_output_0_output: 3b810a14
/reid_model/backbone/layers/layers.3/downsample/norm/Add_output_0: 405baf8f
/reid_model/backbone/layers/layers.2/blocks.2/mlp/fc2/Add_output_0: 3cbea8a7
/reid_model/backbone/layers/layers.2/blocks.2/Add_1_output_0: 3daeecaa
ONNXTRT_Broadcast_2577_output: 3b77c9f1
reid_model.backbone.layers.2.blocks.2.mlp.fc2.bias_output: 3b77c9f1
ONNXTRT_Broadcast_2575_output: 3b320d05
/reid_model/backbone/layers/layers.3/blocks.0/Reshape_7_output_0: 3d145aa8
ONNXTRT_Broadcast_4088_output: 3b810a14
/reid_model/backbone/layers/layers.2/blocks.5/mlp/fc1/MatMul_output_0: 3e457442
/reid_model/backbone/layers/layers.2/blocks.5/mlp/act/Mul_1_output_0: 3d01ff3c
/reid_model/backbone/layers/layers.3/blocks.1/Reshape_4_output_0: 3d33f359
onnx::MatMul_4852_output: 3b320d05
/reid_model/backbone/layers/layers.0/blocks.1/Slice_6_output_0: 3c491d42
ONNXTRT_Broadcast_2799_output: 3b42f0c7
/reid_model/backbone/layers/layers.2/blocks.2/mlp/act/Mul_1_output_0: 3c4886a6
/reid_model/backbone/layers/layers.2/blocks.2/mlp/act/Constant_1_output_0_output: 3c010a14
/reid_model/backbone/layers/layers.2/blocks.2/mlp/act/Div_output_0: 3d100631
/reid_model/backbone/layers/layers.2/blocks.2/mlp/act/Constant_2_output_0_output: 3b810a14
/reid_model/backbone/layers/layers.1/blocks.0/attn/proj/MatMul_output_0: 3c240c09
/reid_model/backbone/layers/layers.3/blocks.0/norm2/Add_output_0: 3d9d006c
/reid_model/backbone/layers/layers.2/blocks.0/attn/Transpose_output_0: 3d2088bf
/reid_model/backbone/layers/layers.2/blocks.3/norm2/Mul_output_0: 3da3fed4
/reid_model/backbone/layers/layers.2/blocks.1/norm2/Sub_output_0: 3d4b3447
/reid_model/backbone/layers/layers.3/blocks.1/norm2/Pow_output_0: 41e5bb32
/reid_model/backbone/layers/layers.1/blocks.1/attn/Mul_output_0: 3bec662e
/reid_model/backbone/layers/layers.2/blocks.1/attn/Squeeze_output_0: 3d2e9b3c
/reid_model/backbone/layers/layers.2/blocks.4/norm1/Constant_output_0_output: 3c810a14
/reid_model/backbone/layers/layers.1/blocks.1/Add_output_0: 3d74e68b
/reid_model/backbone/layers/layers.3/blocks.0/attn/MatMul_1_output_0: 3ca622cc
/reid_model/backbone/layers/layers.2/blocks.3/Reshape_9_output_0: 3dc839bc
/reid_model/backbone/layers/layers.2/blocks.1/norm2/Pow_output_0: 3dd314d8
/reid_model/backbone/layers/layers.3/blocks.1/Slice_1_output_0: 3e250282
/reid_model/backbone/layers/layers.3/blocks.0/norm1/Add_1_output_0: 3cfb5db6
/reid_model/backbone/layers/layers.1/blocks.0/attn/Squeeze_output_0: 3d02e6b9
/reid_model/backbone/layers/layers.2/blocks.2/mlp/fc1/Add_output_0: 3d4bae54
reid_model.backbone.layers.2.blocks.2.mlp.fc1.bias_output: 3c3b82a1
ONNXTRT_Broadcast_4216_output: 3bc11219
/reid_model/backbone/layers/layers.2/blocks.2/mlp/act/Add_output_0: 3c810a14
onnx::MatMul_4851_output: 3b051124
/reid_model/backbone/layers/layers.0/blocks.1/Slice_7_output_0: 3c4a3c38
ONNXTRT_Broadcast_2561_output: 3c13c930
/reid_model/backbone/layers/layers.2/blocks.5/norm1/Sub_output_0: 3e58fbdd
/reid_model/backbone/layers/layers.2/blocks.2/norm2/Add_output_0: 3c501b97
ONNXTRT_Broadcast_4314_output: 33a9226d
/reid_model/backbone/layers/layers.1/blocks.0/Add_output_0: 3d0efa10
reid_model.backbone.layers.2.blocks.2.norm2.weight_output: 3c13c930
/reid_model/backbone/layers/layers.3/blocks.1/attn/Split_output_0: 3d33b01f
/reid_model/backbone/layers/layers.1/blocks.0/attn/Split_output_0: 3d02e6b9
/reid_model/backbone/layers/layers.2/blocks.2/norm2/Mul_output_0: 3d77ca4a
reid_model.backbone.layers.1.blocks.1.norm2.weight_output: 3c6096c7
/reid_model/backbone/layers/layers.2/blocks.4/norm2/Sub_output_0: 3e18b8e3
/reid_model/backbone/layers/layers.2/blocks.5/norm2/Add_output_0: 3e8cb2af
/reid_model/backbone/layers/layers.2/blocks.4/mlp/fc2/MatMul_output_0: 3da3e03d
reid_model.backbone.layers.2.blocks.5.mlp.fc2.bias_output: 3b8643fb
/reid_model/backbone/layers/layers.2/blocks.1/Concat_12_output_0: 3c9c0eee
/reid_model/backbone/layers/layers.3/blocks.1/norm2/ReduceMean_output_0: 39a4f3ec
/reid_model/backbone/layers/layers.3/blocks.1/norm2/Sqrt_output_0: 3d7df9c9
/reid_model/backbone/layers/layers.2/blocks.2/norm2/Constant_1_output_0_output: 33a9226d
/reid_model/backbone/layers/layers.2/blocks.0/mlp/fc2/Add_output_0: 3c7cd851
ONNXTRT_Broadcast_1657_output: 3bbe0848
/reid_model/backbone/layers/layers.1/blocks.1/mlp/act/Mul_output_0: 3d011644
/reid_model/backbone/layers/layers.2/blocks.2/norm2/Sub_output_0: 3d9ca1f6
/reid_model/backbone/layers/layers.2/blocks.2/Reshape_8_output_0: 3d99feff
ONNXTRT_Broadcast_3046_output: 3b9d44e5
/reid_model/backbone/layers/layers.1/blocks.0/attn/Mul_output_0: 3bb91f53
/reid_model/backbone/layers/layers.3/blocks.0/attn/Transpose_2_output_0: 3ca622cc
/reid_model/backbone/layers/layers.0/blocks.1/Slice_8_output_0: 3c491d42
/reid_model/backbone/layers/layers.0/blocks.1/Concat_11_output_0: 3c491d42
/reid_model/backbone/layers/layers.3/downsample/norm/Sqrt_output_0: 3e151555
/reid_model/backbone/layers/layers.3/blocks.1/norm1/Sub_output_0: 3e1dc07a
/reid_model/backbone/layers/layers.3/blocks.1/mlp/fc1/MatMul_output_0: 3e35c590
/reid_model/backbone/layers/layers.3/blocks.0/attn/Split_output_0: 3d37515e
/reid_model/backbone/layers/layers.3/downsample/reduction/MatMul_output_0: 3db5c13f
/reid_model/backbone/layers/layers.2/blocks.0/mlp/fc2/MatMul_output_0: 3cfb8989
/reid_model/backbone/layers/layers.3/blocks.1/norm1/ReduceMean_output_0: 39730c03
/reid_model/backbone/layers/layers.2/blocks.4/mlp/fc1/MatMul_output_0: 3da72bcc
/reid_model/backbone/layers/layers.3/blocks.0/attn/Mul_output_0: 3c01a013
/reid_model/backbone/layers/layers.1/blocks.0/attn/Transpose_output_0: 3d1105ac
/reid_model/backbone/layers/layers.2/blocks.4/Pad_output_0: 3d5d6583
/reid_model/backbone/layers/layers.3/blocks.1/attn/Split_output_1: 3d265aec
/reid_model/backbone/layers/layers.2/blocks.4/norm2/Sqrt_output_0: 3d20019a
/reid_model/backbone/layers/layers.2/blocks.1/norm2/Sqrt_output_0: 3bdc1b64
onnx::MatMul_4721_output: 3ae20390
ONNXTRT_Broadcast_2569_output: 3c367d3d
/reid_model/backbone/layers/layers.2/blocks.0/Reshape_9_output_0: 3d1ff51d
/reid_model/backbone/layers/layers.2/blocks.0/norm1/Add_output_0: 3b49d4e9
ONNXTRT_Broadcast_4309_output: 3c5d38bd
/reid_model/backbone/layers/layers.1/blocks.1/Reshape_9_output_0: 3dc5cc5b
/reid_model/backbone/layers/layers.2/blocks.4/Reshape_2_output_0: 3d5d6583
/reid_model/backbone/layers/layers.2/blocks.1/attn/Mul_output_0: 3bf6ee44
ONNXTRT_Broadcast_2342_output: 33a9226d
reid_model.backbone.layers.3.blocks.0.attn.qkv.bias_output: 3ca55786
/reid_model/backbone/layers/layers.2/blocks.3/mlp/act/Constant_2_output_0_output: 3b810a14
/reid_model/backbone/layers/layers.1/blocks.1/attn/Reshape_3_output_0: 3c9f00b1
/reid_model/backbone/layers/layers.0/blocks.1/Slice_9_output_0: 3c3c747b
/reid_model/backbone/layers/layers.3/blocks.1/mlp/act/Mul_1_output_0: 3d781c1f
/reid_model/backbone/layers/layers.2/blocks.2/Slice_2_output_0: 3d04a33f
reid_model.backbone.layers.2.blocks.2.norm1.weight_output: 3c0226da
/reid_model/neck/neck.1/BatchNormalization_output_0: 3d056162
/reid_model/backbone/layers/layers.3/blocks.1/mlp/act/Div_output_0: 3e092f08
/reid_model/backbone/layers/layers.1/blocks.1/attn/Add_output_0: 3dfa3dc1
/reid_model/backbone/layers/layers.2/blocks.4/attn/Split_output_2: 3d1d18a1
/reid_model/backbone/layers/layers.2/blocks.4/norm1/Constant_1_output_0_output: 33a9226d
/reid_model/backbone/layers/layers.2/blocks.2/Add_output_0: 3d99feff
reid_model.backbone.layers.3.blocks.1.norm1.weight_output: 3c17a6ef
/reid_model/backbone/layers/layers.3/blocks.1/norm1/Pow_output_0: 42852c51
ONNXTRT_Broadcast_1054_output: 3c367d3d
/reid_model/backbone/layers/layers.2/blocks.5/Slice_8_output_0: 3dc2c610
reid_model.backbone.layers.3.downsample.norm.weight_output: 3b691d1b
/reid_model/backbone/layers/layers.2/blocks.1/attn/qkv/Add_output_0: 3d246456
/reid_model/backbone/layers/layers.2/blocks.5/mlp/act/Constant_1_output_0_output: 3c010a14
/reid_model/backbone/layers/layers.2/blocks.1/Reshape_2_output_0: 3cc22443
ONNXTRT_Broadcast_3499_output: 3b1defd3
/reid_model/backbone/layers/layers.2/blocks.5/mlp/fc1/Add_output_0: 3e5e285c
/reid_model/backbone/layers/layers.1/blocks.0/mlp/act/Add_output_0: 3c810a14
/reid_model/backbone/layers/layers.2/blocks.5/Reshape_4_output_0: 3d1fabfe
ONNXTRT_Broadcast_2452_output: 3c7532d5
/reid_model/backbone/layers/layers.2/blocks.3/norm2/Sub_output_0: 3dcf87e2
ONNXTRT_Broadcast_4318_output: 3bb54615
/reid_model/backbone/layers/layers.1/blocks.1/mlp/act/Add_output_0: 3c8111b1
/reid_model/backbone/layers/layers.1/blocks.1/norm2/Div_output_0: 3da4464d
/reid_model/backbone/layers/layers.0/blocks.1/Slice_10_output_0: 3c4f9734
/reid_model/backbone/layers/layers.0/blocks.1/Concat_12_output_0: 3c491d42
/reid_model/backbone/layers/layers.0/blocks.1/Add_output_0: 3d29e661
/reid_model/backbone/layers/layers.2/blocks.0/Slice_1_output_0: 3ccd0cc7
ONNXTRT_Broadcast_1776_output: 3ab67d3d
/reid_model/backbone/layers/layers.2/blocks.2/attn/Split_output_0: 3d268ae0
ONNXTRT_Broadcast_1062_output: 3bdebe4b
/reid_model/Clip_output: 3e39fe7f
/reid_model/backbone/layers/layers.2/blocks.3/Concat_11_output_0: 3d01d6c3
/reid_model/backbone/layers/layers.0/blocks.1/Reshape_8_output_0: 3d29e661
/reid_model/backbone/layers/layers.0/blocks.1/norm2/ReduceMean_output_0: 3be62012
/reid_model/backbone/layers/layers.0/blocks.1/norm2/Sub_output_0: 3d27050d
/reid_model/backbone/layers/layers.0/blocks.1/norm2/Constant_output_0_output: 3c810a14
ONNXTRT_Broadcast_710_output: 3c810a14
/reid_model/backbone/layers/layers.0/blocks.1/norm2/Pow_output_0: 3dc07fb3
/reid_model/backbone/layers/layers.0/blocks.1/norm2/ReduceMean_1_output_0: 3be7295b
/reid_model/backbone/layers/layers.0/blocks.1/norm2/Constant_1_output_0_output: 33a9226d
ONNXTRT_Broadcast_712_output: 33a9226d
/reid_model/backbone/layers/layers.0/blocks.1/norm2/Add_output_0: 3be72a03
/reid_model/backbone/layers/layers.0/blocks.1/norm2/Sqrt_output_0: 3bfb76c4
/reid_model/backbone/layers/layers.0/blocks.1/norm2/Div_output_0: 3d8e5619
reid_model.backbone.layers.0.blocks.1.norm2.weight_output: 3cc7ffeb
ONNXTRT_Broadcast_714_output: 3cc7ffeb
/reid_model/backbone/layers/layers.0/blocks.1/norm2/Mul_output_0: 3dcdf065
reid_model.backbone.layers.0.blocks.1.norm2.bias_output: 3bdb8ff6
ONNXTRT_Broadcast_716_output: 3bdb8ff6
/reid_model/backbone/layers/layers.0/blocks.1/norm2/Add_1_output_0: 3dcaae7e
onnx::MatMul_4607_output: 3b3e4f3c
ONNXTRT_Broadcast_718_output: 3b3e4f3c
/reid_model/backbone/layers/layers.0/blocks.1/mlp/fc1/MatMul_output_0: 3d5733b0
reid_model.backbone.layers.0.blocks.1.mlp.fc1.bias_output: 3c41e80b
ONNXTRT_Broadcast_720_output: 3c41e80b
/reid_model/backbone/layers/layers.0/blocks.1/mlp/fc1/Add_output_0: 3d57b85c
/reid_model/backbone/layers/layers.0/blocks.1/mlp/act/Constant_output_0_output: 3c367d3d
ONNXTRT_Broadcast_722_output: 3c367d3d
/reid_model/backbone/layers/layers.0/blocks.1/mlp/act/Div_output_0: 3d188985
/reid_model/backbone/layers/layers.0/blocks.1/mlp/act/Erf_output_0: 3c010a14
/reid_model/backbone/layers/layers.0/blocks.1/mlp/act/Constant_1_output_0_output: 3c010a14
ONNXTRT_Broadcast_724_output: 3c010a14
/reid_model/backbone/layers/layers.0/blocks.1/mlp/act/Add_output_0: 3c8111d3
/reid_model/backbone/layers/layers.0/blocks.1/mlp/act/Mul_output_0: 3cbc2800
/reid_model/backbone/layers/layers.0/blocks.1/mlp/act/Constant_2_output_0_output: 3b810a14
ONNXTRT_Broadcast_726_output: 3b810a14
/reid_model/backbone/layers/layers.0/blocks.1/mlp/act/Mul_1_output_0: 3c3c2800
onnx::MatMul_4608_output: 3b3d53fb
ONNXTRT_Broadcast_728_output: 3b3d53fb
/reid_model/backbone/layers/layers.0/blocks.1/mlp/fc2/MatMul_output_0: 3c5687ae
reid_model.backbone.layers.0.blocks.1.mlp.fc2.bias_output: 3b4e76c6
ONNXTRT_Broadcast_730_output: 3b4e76c6
/reid_model/backbone/layers/layers.0/blocks.1/mlp/fc2/Add_output_0: 3cb9ec91
/reid_model/backbone/layers/layers.0/blocks.1/Add_1_output_0: 3d6276b6
ONNXTRT_Broadcast_3288_output: 3c23e570
/reid_model/backbone/layers/layers.2/blocks.3/Reshape_6_output_0: 3d01d6c3
features: 3b065627
reid_model.backbone.layers.2.blocks.1.norm2.weight_output: 3bf448a4
/reid_model/backbone/layers/layers.3/blocks.1/mlp/act/Constant_1_output_0_output: 3c010a14
/reid_model/backbone/layers/layers.2/blocks.0/attn/Squeeze_1_output_0: 3d0c4fbf
/reid_model/backbone/layers/layers.2/blocks.0/attn/softmax/Softmax_output_0: 3b9b9331
ONNXTRT_Broadcast_1531_output: 3bea869b
/reid_model/backbone/layers/layers.2/blocks.1/attn/qkv/MatMul_output_0: 3d175328
/reid_model/backbone/layers/layers.0/blocks.1/Reshape_9_output_0: 3d6276b6
/reid_model/backbone/layers/layers.2/blocks.2/mlp/fc2/MatMul_output_0: 3d0aeb05
/reid_model/backbone/layers/layers.2/downsample/Transpose_1_output_0: 3dc5cc5b
/reid_model/backbone/layers/layers.2/blocks.1/attn/Squeeze_2_output_0: 3ca01f2c
/reid_model/backbone/layers/layers.2/blocks.3/Slice_output_0: 3d10773c
/reid_model/backbone/layers/layers.2/downsample/norm/Mul_output_0: 3cbbbf36
ONNXTRT_Broadcast_3882_output: 3c810a14
/reid_model/backbone/layers/layers.2/blocks.5/mlp/fc2/MatMul_output_0: 3e1db26f
/reid_model/backbone/layers/layers.3/blocks.0/attn/Reshape_output_0: 3d2c8fae
/reid_model/backbone/layers/layers.2/blocks.3/mlp/fc1/Add_output_0: 3d8bf459
/reid_model/backbone/layers/layers.3/blocks.1/attn/MatMul_1_output_0: 3ce85da3
/reid_model/backbone/layers/layers.3/blocks.0/mlp/fc2/MatMul_output_0: 3e11852e
reid_model.backbone.layers.2.downsample.norm.weight_output: 3bbe0848
/reid_model/backbone/layers/layers.2/blocks.2/attn/softmax/Softmax_output_0: 3b7d74fd
/reid_model/backbone/layers/layers.1/blocks.0/Reshape_6_output_0: 3c97b25e
/reid_model/backbone/layers/layers.2/blocks.2/attn/MatMul_1_output_0: 3c96c4e1
/reid_model/backbone/layers/layers.2/blocks.2/attn/Add_output_0: 3ddb0790
/reid_model/backbone/layers/layers.3/blocks.1/Reshape_8_output_0: 3e856606
reid_model.backbone.layers.1.blocks.0.norm2.weight_output: 3c538809
/reid_model/backbone/layers/layers.2/blocks.1/mlp/act/Constant_output_0_output: 3c367d3d
onnx::MatMul_4972_output: 3b69193e
reid_model.backbone.layers.3.blocks.0.norm1.bias_output: 3aef5848
/reid_model/backbone/layers/layers.1/blocks.0/attn/Add_output_0: 3dc831f3
/reid_model/backbone/layers/layers.2/blocks.1/attn/Reshape_1_output_0: 3dc15a55
/reid_model/backbone/layers/layers.3/blocks.0/Slice_2_output_0: 3d145aa8
ONNXTRT_Broadcast_4099_output: 3c810a14
ONNXTRT_Broadcast_2344_output: 3bf448a4
/reid_model/backbone/layers/layers.1/blocks.0/norm2/Sub_output_0: 3d0d9678
/reid_model/backbone/layers/layers.2/blocks.4/mlp/act/Div_output_0: 3d91fb15
ONNXTRT_Broadcast_3874_output: 3bbe668a
onnx::MatMul_4637_output: 3b306fee
/reid_model/backbone/layers/layers.3/blocks.0/Add_output_0: 3db0b270
/reid_model/backbone/layers/layers.3/blocks.0/mlp/act/Add_output_0: 3c810a14
/reid_model/backbone/layers/layers.2/blocks.5/attn/qkv/MatMul_output_0: 3d2675f3
onnx::MatMul_4747_output: 3acf4219
/reid_model/backbone/layers/layers.1/blocks.1/mlp/act/Constant_2_output_0_output: 3b810a14
/reid_model/backbone/layers/layers.2/blocks.1/mlp/act/Div_output_0: 3d01bb6b
/reid_model/backbone/layers/layers.2/blocks.3/Reshape_2_output_0: 3d17411c
ONNXTRT_Broadcast_1875_output: 3b0b374d
/reid_model/backbone/layers/layers.1/blocks.1/mlp/act/Constant_output_0_output: 3c367d3d
/reid_model/backbone/layers/layers.1/blocks.0/mlp/fc1/MatMul_output_0: 3d288aad
/reid_model/backbone/layers/layers.2/blocks.5/norm2/Mul_output_0: 3dbe47c1
/reid_model/backbone/layers/layers.2/blocks.1/Slice_10_output_0: 3c9c68dc
/reid_model/ReduceL2_output: 3ddb3e7d
ONNXTRT_Broadcast_1659_output: 3c08507c
/reid_model/backbone/layers/layers.2/blocks.0/norm2/Mul_output_0: 3d1a121a
/reid_model/backbone/layers/layers.3/blocks.1/mlp/fc2/MatMul_output_0: 3e9aeba4
/reid_model/Expand_output_0: 3e39fe7f
onnx::MatMul_5085_output: 3b46ae70
/reid_model/backbone/layers/layers.2/blocks.4/attn/Reshape_1_output_0: 3cd66bd9
/reid_model/backbone/layers/layers.2/blocks.2/attn/proj/Add_output_0: 3d04a33f
onnx::MatMul_4693_output: 3ab2a193
/reid_model/backbone/layers/layers.2/blocks.0/Transpose_2_output_0: 3ccd0cc7
/reid_model/backbone/layers/layers.2/blocks.5/norm2/ReduceMean_1_output_0: 3e8cb2ae
/reid_model/backbone/layers/layers.2/blocks.4/Reshape_3_output_0: 3d5d6583
/reid_model/backbone/layers/layers.2/blocks.2/Reshape_7_output_0: 3d04a33f
/reid_model/backbone/layers/layers.2/blocks.2/Transpose_2_output_0: 3d04a33f
ONNXTRT_Broadcast_2348_output: 3b0d3864
/reid_model/backbone/layers/layers.2/blocks.4/attn/MatMul_output_0: 3daa498f
/reid_model/backbone/layers/layers.2/blocks.2/Reshape_6_output_0: 3d04a33f
/reid_model/backbone/layers/layers.3/downsample/Transpose_1_output_0: 3ebc76e3
ONNXTRT_Broadcast_3758_output: 3b8f8aee
ONNXTRT_Broadcast_3184_output: 3b917348
/reid_model/backbone/layers/layers.1/blocks.1/attn/Transpose_output_0: 3d2d1526
/reid_model/backbone/layers/layers.2/blocks.3/norm1/Sub_output_0: 3daf08e6
reid_model.backbone.layers.2.blocks.4.attn.qkv.bias_output: 3c978337
/reid_model/backbone/norm/Sqrt_output_0: 3d83fcf6
/reid_model/backbone/layers/layers.1/blocks.1/attn/Transpose_1_output_0: 3d33339b
/reid_model/backbone/layers/layers.2/blocks.5/attn/Reshape_2_output_0: 3f58ce23
ONNXTRT_Broadcast_4291_output: 33a9226d
/reid_model/backbone/layers/layers.1/blocks.0/mlp/act/Div_output_0: 3d0dd008
/reid_model/backbone/layers/layers.2/blocks.0/attn/Constant_9_output_0_output: 3ab67d3d
/reid_model/backbone/layers/layers.1/blocks.1/Reshape_3_output_0: 3d40c000
/reid_model/backbone/layers/layers.2/blocks.4/Reshape_6_output_0: 3d81d060
reid_model.backbone.layers.2.blocks.0.norm2.bias_output: 3b9996d9
/reid_model/backbone/layers/layers.3/blocks.1/norm2/Add_output_0: 3ee3a7bf
/reid_model/backbone/layers/layers.3/blocks.1/attn/Mul_output_0: 3bfe1dff
ONNXTRT_Broadcast_1867_output: 3c3fabee
/reid_model/backbone/layers/layers.3/blocks.0/Reshape_2_output_0: 3cfb5db6
/reid_model/backbone/layers/layers.2/blocks.0/mlp/fc1/Add_output_0: 3d4e9d9b
/reid_model/backbone/layers/layers.2/blocks.5/attn/Constant_13_output_0_output: 3f499fbf
/reid_model/backbone/layers/layers.2/blocks.5/norm2/ReduceMean_output_0: 3b0b8517
/reid_model/backbone/layers/layers.2/blocks.4/norm1/Sqrt_output_0: 3d21ac08
/reid_model/backbone/layers/layers.2/blocks.3/Transpose_1_output_0: 3d17411c
ONNXTRT_Broadcast_4076_output: 3cebb697
/reid_model/backbone/layers/layers.1/blocks.0/mlp/fc2/MatMul_output_0: 3c6d53f3
ONNXTRT_Broadcast_4312_output: 3c810a14
ONNXTRT_Broadcast_2484_output: 3b8e0c18
reid_model.backbone.layers.2.blocks.2.attn.proj.bias_output: 3b8e0c18
ONNXTRT_Broadcast_2482_output: 3adb3af8
reid_model.backbone.layers.1.blocks.0.mlp.fc2.bias_output: 3bdebe4b
reid_model.backbone.layers.3.blocks.0.mlp.fc1.bias_output: 3c06989f
/reid_model/backbone/layers/layers.2/downsample/reduction/MatMul_output_0: 3cfe86ab
/reid_model/backbone/layers/layers.2/blocks.3/mlp/act/Constant_1_output_0_output: 3c010a14
/reid_model/backbone/layers/layers.3/blocks.0/attn/qkv/Add_output_0: 3d2c8fae
/reid_model/backbone/layers/layers.2/blocks.4/mlp/act/Constant_1_output_0_output: 3c010a14
ONNXTRT_Broadcast_3886_output: 3be38b98
/reid_model/backbone/layers/layers.2/blocks.5/attn/Reshape_3_output_0: 3d027554
onnx::Add_4745_output: 3da501f6
/reid_model/backbone/layers/layers.2/blocks.1/norm1/ReduceMean_output_0: 39c7f2ba
/reid_model/backbone/layers/layers.1/downsample/Pad_output_0: 3d6276b6
/reid_model/backbone/layers/layers.2/blocks.5/norm1/Add_1_output_0: 3d1fabfe
ONNXTRT_Broadcast_2584_output: 3c810a14
/reid_model/backbone/layers/layers.1/blocks.0/attn/softmax/Softmax_output: 3aaf98d3
/reid_model/backbone/layers/layers.2/blocks.3/norm2/Sqrt_output_0: 3caffc62
/reid_model/backbone/layers/layers.2/blocks.4/norm1/ReduceMean_1_output_0: 3d7dbb03
/reid_model/backbone/layers/layers.1/blocks.1/attn/Constant_9_output_0_output: 3ab67d3d
ONNXTRT_Broadcast_2346_output: 3bbd4f8b
/reid_model/backbone/layers/layers.2/blocks.4/norm2/Add_output_0: 3ddedb86
/reid_model/backbone/layers/layers.2/blocks.2/attn/Mul_output_0: 3beb86d2
/reid_model/backbone/norm/Add_output_0: 3f03c0d2
ONNXTRT_Broadcast_2476_output: 3ab67d3d
/reid_model/backbone/layers/layers.2/blocks.5/Slice_5_output_0: 3dc206e6
/reid_model/backbone/layers/layers.2/blocks.2/attn/Squeeze_2_output_0: 3ce930fd
onnx::MatMul_5084_output: 3c01d4cc
/reid_model/backbone/layers/layers.3/blocks.1/mlp/act/Add_output_0: 3c810a14
/reid_model/backbone/layers/layers.3/blocks.0/mlp/act/Div_output_0: 3e25b708
/reid_model/backbone/layers/layers.2/blocks.2/norm1/ReduceMean_1_output_0: 3c3de1ab
onnx::Add_4876_output: 3d3ba67d
/reid_model/backbone/layers/layers.2/blocks.1/norm1/Pow_output_0: 3dcf277d
/reid_model/backbone/layers/layers.2/blocks.2/attn/Constant_9_output_0_output: 3ab67d3d
onnx::MatMul_4810_output: 3b15c97a
/reid_model/backbone/layers/layers.2/blocks.2/attn/Squeeze_output_0: 3d268ae0
/reid_model/backbone/layers/layers.2/blocks.1/Pad_output_0: 3cc22443
/reid_model/backbone/layers/layers.2/blocks.2/attn/MatMul_output_0: 3db26d12
/reid_model/backbone/layers/layers.2/blocks.5/Concat_12_output_0: 3dc206e6
/reid_model/backbone/layers/layers.2/blocks.4/attn/Add_output_0: 3dcd8033
/reid_model/backbone/layers/layers.3/blocks.0/attn/Squeeze_1_output_0: 3d1a7ff6
/reid_model/backbone/layers/layers.1/downsample/Reshape_2_output_0: 3d6276b6
/reid_model/backbone/layers/layers.1/downsample/Transpose_1_output_0: 3d6276b6
/reid_model/backbone/layers/layers.3/blocks.0/attn/MatMul_output_0: 3dc31bba
/reid_model/backbone/layers/layers.2/blocks.3/Slice_5_output_0: 3d01d6c3
/reid_model/backbone/layers/layers.2/blocks.5/attn/Transpose_output_0: 3d2c8206
/reid_model/backbone/layers/layers.2/blocks.2/attn/Split_output_2: 3ce930fd
ONNXTRT_Broadcast_3259_output: 33a9226d
/reid_model/backbone/layers/layers.3/blocks.1/norm1/Sqrt_output_0: 3d650dad
/reid_model/backbone/layers/layers.3/blocks.0/norm2/Pow_output_0: 4124c405
/reid_model/backbone/layers/layers.2/blocks.4/attn/softmax/Softmax_output: 3b80de82
/reid_model/backbone/layers/layers.3/blocks.0/Reshape_8_output_0: 3db0b270
/reid_model/backbone/layers/layers.1/blocks.0/Reshape_7_output_0: 3c97b25e
/reid_model/backbone/layers/layers.2/blocks.4/mlp/act/Constant_2_output_0_output: 3b810a14
ONNXTRT_Broadcast_4105_output: 3b1074b1
/reid_model/backbone/layers/layers.3/blocks.0/norm2/Constant_output_0_output: 3c810a14
/reid_model/backbone/layers/layers.2/blocks.1/attn/Reshape_output_0: 3d246456
/reid_model/backbone/layers/layers.2/blocks.5/norm2/Sub_output_0: 3e863e4f
ONNXTRT_Broadcast_961_output: 3ab67d3d
ONNXTRT_Broadcast_4072_output: 3c810a14
/reid_model/backbone/layers/layers.2/blocks.1/attn/MatMul_output_0: 3db51211
/reid_model/backbone/layers/layers.1/blocks.1/Slice_5_output_0: 3c90d9fa
ONNXTRT_Broadcast_3997_output: 3b5d3027
/reid_model/backbone/layers/layers.1/blocks.0/attn/Split_output_1: 3d200584
reid_model.backbone.layers.3.blocks.1.attn.qkv.bias_output: 3cbeae7d
/reid_model/backbone/layers/layers.3/blocks.1/Slice_2_output_0: 3e250282
reid_model.backbone.layers.1.blocks.1.norm1.weight_output: 3c1d1408
/reid_model/backbone/layers/layers.1/blocks.1/Reshape_6_output_0: 3c90d9fa
reid_model.backbone.layers.2.blocks.5.norm2.bias_output: 3bd7db21
/reid_model/backbone/layers/layers.2/blocks.4/Reshape_7_output_0: 3d81d060
onnx::MatMul_4987_output: 3b8d5569
/reid_model/backbone/layers/layers.2/blocks.4/Add_1_output_0: 3e45d99c
ONNXTRT_Broadcast_1071_output: 33a9226d
ONNXTRT_Broadcast_3744_output: 3c9b2374
/reid_model/backbone/layers/layers.1/downsample/Reshape_3_output_0: 3d6276b6
/reid_model/backbone/layers/layers.1/downsample/norm/ReduceMean_output_0: 3bfb8939
/reid_model/backbone/layers/layers.1/downsample/norm/Sub_output_0: 3d5b97f4
/reid_model/backbone/layers/layers.1/downsample/norm/Constant_output_0_output: 3c810a14
ONNXTRT_Broadcast_838_output: 3c810a14
/reid_model/backbone/layers/layers.1/downsample/norm/Pow_output_0: 3e6e30a5
/reid_model/backbone/layers/layers.1/downsample/norm/ReduceMean_1_output_0: 3c1f4634
/reid_model/backbone/layers/layers.1/downsample/norm/Constant_1_output_0_output: 33a9226d
ONNXTRT_Broadcast_840_output: 33a9226d
/reid_model/backbone/layers/layers.1/downsample/norm/Add_output_0: 3c1f468c
/reid_model/backbone/layers/layers.1/downsample/norm/Sqrt_output_0: 3c102994
/reid_model/backbone/layers/layers.1/downsample/norm/Div_output_0: 3d9574b7
reid_model.backbone.layers.1.downsample.norm.weight_output: 3c50eb08
ONNXTRT_Broadcast_842_output: 3c50eb08
/reid_model/backbone/layers/layers.1/downsample/norm/Mul_output_0: 3d0e5560
reid_model.backbone.layers.1.downsample.norm.bias_output: 3c17c64a
ONNXTRT_Broadcast_844_output: 3c17c64a
/reid_model/backbone/layers/layers.1/downsample/norm/Add_1_output_0: 3d06cb84
onnx::MatMul_4620_output: 3b027fbd
ONNXTRT_Broadcast_846_output: 3b027fbd
/reid_model/backbone/layers/layers.1/downsample/reduction/MatMul_output_0: 3d03f854
ONNXTRT_Broadcast_4208_output: 3ab67d3d
onnx::MatMul_4869_output: 3b42f0c7
/reid_model/backbone/layers/layers.2/blocks.3/norm2/Add_output_0: 3d3c7bea
/reid_model/backbone/layers/layers.2/blocks.1/attn/Reshape_3_output_0: 3c847fa3
/reid_model/backbone/layers/layers.2/blocks.2/mlp/act/Erf_output_0: 3c010a14
/reid_model/backbone/layers/layers.2/blocks.3/mlp/act/Erf_output_0: 3c010a14
/reid_model/backbone/layers/layers.2/blocks.3/attn/Transpose_1_output_0: 3d217353
reid_model.backbone.layers.2.blocks.3.attn.proj.bias_output: 3b75c7c5
/reid_model/backbone/layers/layers.2/blocks.5/attn/Add_1_output_0: 3f58ce23
/reid_model/backbone/layers/layers.3/blocks.0/norm1/Pow_output_0: 4128a516
/reid_model/backbone/layers/layers.2/blocks.3/Reshape_8_output_0: 3dc99026
/reid_model/backbone/layers/layers.3/blocks.1/norm1/Constant_output_0_output: 3c810a14
/reid_model/backbone/layers/layers.3/blocks.0/Reshape_3_output_0: 3cfb5db6
/reid_model/backbone/layers/layers.3/downsample/norm/Add_1_output_0: 3cf07d25
/reid_model/backbone/layers/layers.2/blocks.4/Add_output_0: 3e1967d8
/reid_model/backbone/layers/layers.2/blocks.5/attn/MatMul_1_output_0: 3d027554
/reid_model/backbone/layers/layers.1/blocks.0/norm1/ReduceMean_output_0: 3af2aee7
/reid_model/backbone/layers/layers.1/blocks.0/norm1/Sub_output_0: 3d0396a8
/reid_model/backbone/layers/layers.1/blocks.0/norm1/Constant_output_0_output: 3c810a14
ONNXTRT_Broadcast_852_output: 3c810a14
/reid_model/backbone/layers/layers.1/blocks.0/norm1/Pow_output_0: 3d58ccaa
/reid_model/backbone/layers/layers.1/blocks.0/norm1/ReduceMean_1_output_0: 3b8d3e3b
/reid_model/backbone/layers/layers.1/blocks.0/norm1/Constant_1_output_0_output: 33a9226d
ONNXTRT_Broadcast_854_output: 33a9226d
/reid_model/backbone/layers/layers.1/blocks.0/norm1/Add_output_0: 3b8d3ee5
/reid_model/backbone/layers/layers.1/blocks.0/norm1/Sqrt_output_0: 3bcab9e4
/reid_model/backbone/layers/layers.1/blocks.0/norm1/Div_output_0: 3d67e193
reid_model.backbone.layers.1.blocks.0.norm1.weight_output: 3bdee001
ONNXTRT_Broadcast_856_output: 3bdee001
/reid_model/backbone/layers/layers.1/blocks.0/norm1/Mul_output_0: 3cc1b71d
reid_model.backbone.layers.1.blocks.0.norm1.bias_output: 3b6c982c
ONNXTRT_Broadcast_858_output: 3b6c982c
/reid_model/backbone/layers/layers.1/blocks.0/norm1/Add_1_output_0: 3cc475eb
onnx::MatMul_4827_output: 3b374dc8
reid_model.backbone.layers.1.blocks.1.norm2.bias_output: 3bea869b
/reid_model/backbone/layers/layers.3/blocks.0/Reshape_6_output_0: 3d145aa8
/reid_model/backbone/layers/layers.2/blocks.0/norm2/Sqrt_output_0: 3bb24c8c
ONNXTRT_Broadcast_1284_output: 3b44c271
reid_model.backbone.layers.2.blocks.0.norm2.weight_output: 3c0b7bae
/reid_model/backbone/layers/layers.1/blocks.0/attn/MatMul_output_0: 3d8cdf5a
ONNXTRT_Broadcast_1046_output: 3c538809
/reid_model/backbone/layers/layers.2/blocks.5/Reshape_6_output_0: 3dc206e6
/reid_model/backbone/layers/layers.3/blocks.1/attn/Transpose_1_output_0: 3d265aec
ONNXTRT_Broadcast_1671_output: 3bb99b8a
/reid_model/backbone/layers/layers.2/blocks.2/Pad_output_0: 3cf7d011
/reid_model/backbone/layers/layers.2/blocks.0/norm2/ReduceMean_output_0: 399382ea
/reid_model/backbone/layers/layers.1/blocks.1/Reshape_8_output_0: 3d74e68b
/reid_model/backbone/layers/layers.2/blocks.0/norm1/Add_1_output_0: 3c60fff8
/reid_model/backbone/layers/layers.2/blocks.2/Reshape_5_output_0: 3d04a33f
/reid_model/backbone/layers/layers.2/blocks.5/mlp/act/Constant_2_output_0_output: 3b810a14
/reid_model/backbone/layers/layers.1/blocks.0/norm2/Sqrt_output_0: 3bc0325f
reid_model.backbone.layers.1.blocks.0.mlp.fc1.bias_output: 3c555e90
/reid_model/backbone/layers/layers.2/blocks.2/Reshape_4_output_0: 3cf7d011
/reid_model/backbone/layers/layers.2/blocks.4/Reshape_9_output_0: 3e45d99c
/reid_model/backbone/norm/Constant_output_0_output: 3c810a14
ONNXTRT_Broadcast_2450_output: 3b374dc8
onnx::MatMul_4958_output: 3b1defd3
/reid_model/backbone/layers/layers.3/blocks.1/norm1/ReduceMean_1_output_0: 3e82dd4f
/reid_model/backbone/norm/Div_output_0: 3dfb4aff
ONNXTRT_Broadcast_1543_output: 3b29767e
reid_model.backbone.layers.2.blocks.4.norm1.weight_output: 3c1aa0b8
/reid_model/backbone/layers/layers.1/blocks.1/norm1/Sqrt_output_0: 3be1f4f8
ONNXTRT_Broadcast_1661_output: 3ae20390
/reid_model/backbone/layers/layers.3/blocks.1/norm2/Constant_1_output_0_output: 33a9226d
ONNXTRT_Broadcast_3286_output: 33a9226d
/reid_model/backbone/layers/layers.2/blocks.1/norm1/Add_1_output_0: 3cc22443
/reid_model/backbone/layers/layers.2/blocks.5/mlp/fc2/Add_output_0: 3e1b8d0c
/reid_model/backbone/layers/layers.2/blocks.0/Reshape_4_output_0: 3c60fff8
/reid_model/backbone/norm/ReduceMean_1_output_0: 3f03c0d1
/reid_model/backbone/layers/layers.2/blocks.3/attn/Reshape_3_output_0: 3cb91220
ONNXTRT_Broadcast_1669_output: 33a9226d
/reid_model/backbone/layers/layers.3/blocks.0/mlp/act/Constant_2_output_0_output: 3b810a14
/reid_model/backbone/layers/layers.2/blocks.1/Slice_3_output_0: 3cbe48ff
reid_model.backbone.layers.2.blocks.4.norm2.weight_output: 3c5e01f6
/reid_model/backbone/layers/layers.1/blocks.0/Reshape_4_output_0: 3cc475eb
/reid_model/backbone/layers/layers.2/blocks.5/norm2/Add_1_output_0: 3dc47713
/reid_model/backbone/layers/layers.2/downsample/norm/ReduceMean_output_0: 3b860049
/reid_model/backbone/layers/layers.2/blocks.4/norm2/ReduceMean_1_output_0: 3ddedb81
/reid_model/backbone/layers/layers.2/blocks.2/attn/qkv/MatMul_output_0: 3d1a7248
/reid_model/backbone/layers/layers.2/blocks.1/norm2/ReduceMean_1_output_0: 3bbbab13
/reid_model/backbone/layers/layers.2/blocks.2/norm1/Sqrt_output_0: 3c217e85
ONNXTRT_unsqueezeTensor_output: 3d90e6ab
onnx::MatMul_4738_output: 3b37f7e3
/reid_model/backbone/layers/layers.2/blocks.2/attn/Transpose_output_0: 3d1ff991
/reid_model/backbone/layers/layers.3/blocks.1/attn/Squeeze_2_output_0: 3d176e7d
onnx::MatMul_4646_output: 3ab82174
reid_model.backbone.layers.3.blocks.1.mlp.fc2.bias_output: 3c5d38bd
/reid_model/backbone/layers/layers.2/blocks.0/Reshape_3_output_0: 3c60fff8
ONNXTRT_Broadcast_4103_output: 3c17a6ef
/reid_model/backbone/layers/layers.1/blocks.1/norm2/Add_1_output_0: 3d6d58ed
/reid_model/backbone/layers/layers.2/downsample/norm/Div_output_0: 3dc27fc9
/reid_model/backbone/layers/layers.2/blocks.0/mlp/act/Constant_2_output_0_output: 3b810a14
/reid_model/backbone/norm/Sub_output_0: 3f142579
/reid_model/backbone/layers/layers.1/blocks.1/attn/proj/Add_output_0: 3c90d9fa
/reid_model/backbone/layers/layers.2/blocks.0/attn/MatMul_1_output_0: 3c5a6389
ONNXTRT_Broadcast_1667_output: 3c810a14
ONNXTRT_Broadcast_967_output: 3ab82174
/reid_model/backbone/layers/layers.2/blocks.0/attn/MatMul_output_0: 3da2adf3
ONNXTRT_Broadcast_3048_output: 3af442b2
/reid_model/backbone/layers/layers.3/blocks.1/attn/proj/MatMul_output_0: 3dc3b5b9
/reid_model/backbone/layers/layers.2/blocks.2/norm2/Pow_output_0: 3ed35bdb
/reid_model/backbone/layers/layers.2/blocks.3/attn/MatMul_output_0: 3db61a1e
/reid_model/backbone/layers/layers.3/blocks.1/norm2/Constant_output_0_output: 3c810a14
/reid_model/backbone/layers/layers.2/blocks.0/norm2/Constant_1_output_0_output: 33a9226d
/reid_model/backbone/layers/layers.2/blocks.4/mlp/fc1/Add_output_0: 3dce72b0
/reid_model/backbone/layers/layers.2/blocks.3/mlp/act/Add_output_0: 3c811222
/reid_model/backbone/layers/layers.3/blocks.0/attn/Transpose_1_output_0: 3d1a7ff6
/reid_model/backbone/layers/layers.3/downsample/norm/Constant_output_0_output: 3c810a14
/reid_model/backbone/layers/layers.1/blocks.1/Transpose_2_output_0: 3c90d9fa
ONNXTRT_Broadcast_1052_output: 3c555e90
/reid_model/backbone/layers/layers.2/blocks.0/attn/Transpose_1_output_0: 3d0c4fbf
/reid_model/backbone/layers/layers.3/blocks.0/norm1/Mul_output_0: 3d13fd45
/reid_model/backbone/layers/layers.2/blocks.2/attn/Transpose_1_output_0: 3d22ea4e
/reid_model/backbone/layers/layers.2/blocks.5/norm2/Constant_1_output_0_output: 33a9226d
/reid_model/backbone/layers/layers.3/blocks.0/norm1/Sub_output_0: 3db5b497
ONNXTRT_Broadcast_3746_output: 3bd7db21
/reid_model/backbone/layers/layers.3/blocks.1/Transpose_2_output_0: 3e250282
/reid_model/backbone/layers/layers.2/blocks.5/Reshape_2_output_0: 3d1fabfe
reid_model.backbone.layers.2.downsample.norm.bias_output: 3c08507c
/reid_model/backbone/layers/layers.3/blocks.1/attn/Transpose_output_0: 3d30d9bc
/reid_model/backbone/layers/layers.1/blocks.1/Reshape_7_output_0: 3c90d9fa
ONNXTRT_Broadcast_3267_output: 3c1f2eee
reid_model.backbone.layers.3.blocks.1.attn.proj.bias_output: 3bc11219
/reid_model/backbone/layers/layers.2/blocks.2/attn/Squeeze_1_output_0: 3d22ea4e
/reid_model/backbone/layers/layers.3/blocks.1/Reshape_7_output_0: 3e250282
ONNXTRT_Broadcast_3965_output: 3b07b274
ONNXTRT_Broadcast_3870_output: 33a9226d
/reid_model/backbone/layers/layers.1/blocks.1/attn/Constant_13_output_0_output: 3f499fbf
onnx::Add_4834_output: 3db00975
reid_model.backbone.layers.2.blocks.4.norm1.bias_output: 3c4a022e
ONNXTRT_Broadcast_3748_output: 3b8d5569
ONNXTRT_Broadcast_3501_output: 3c8a7157
/reid_model/backbone/layers/layers.1/blocks.1/attn/Squeeze_1_output_0: 3d33339b
/reid_model/backbone/layers/layers.2/blocks.1/mlp/fc1/Add_output_0: 3d37780a
onnx::Add_4965_output: 3ce37130
reid_model.backbone.layers.2.blocks.0.norm1.weight_output: 3bb99b8a
/reid_model/backbone/layers/layers.2/blocks.2/attn/qkv/Add_output_0: 3d1ff991
/reid_model/backbone/layers/layers.2/blocks.0/norm1/Mul_output_0: 3c72f5b7
/reid_model/backbone/layers/layers.2/blocks.5/attn/Add_output_0: 3de4655e
ONNXTRT_Broadcast_1048_output: 3b659e56
/reid_model/backbone/layers/layers.1/blocks.0/Pad_output_0: 3cc475eb
/reid_model/backbone/layers/layers.3/blocks.0/norm2/Sqrt_output_0: 3cd97cdc
onnx::MatMul_5017_output: 3b07b274
/reid_model/backbone/layers/layers.2/blocks.3/mlp/fc2/MatMul_output_0: 3d1ae048
/reid_model/backbone/layers/layers.2/blocks.3/norm2/Pow_output_0: 3f313346
/reid_model/backbone/layers/layers.2/blocks.4/attn/Squeeze_1_output_0: 3d242f13
/reid_model/backbone/layers/layers.2/blocks.2/attn/Reshape_1_output_0: 3c96c4e1
/reid_model/backbone/layers/layers.1/blocks.0/attn/Squeeze_2_output_0: 3cb77f34
/reid_model/backbone/layers/layers.2/blocks.1/norm1/Add_output_0: 3b953528
/reid_model/backbone/layers/layers.3/blocks.0/attn/Add_output_0: 3e01f870
ONNXTRT_Broadcast_1056_output: 3c010a14
/reid_model/backbone/layers/layers.2/blocks.5/attn/Constant_9_output_0_output: 3ab67d3d
reid_model.backbone.layers.2.blocks.0.mlp.fc1.bias_output: 3c3fabee
/reid_model/backbone/layers/layers.2/blocks.1/Reshape_6_output_0: 3c9c0eee
/reid_model/backbone/layers/layers.2/blocks.1/attn/Split_output_1: 3d160efc
/reid_model/backbone/layers/layers.1/blocks.0/Reshape_3_output_0: 3cc475eb
/reid_model/backbone/layers/layers.2/blocks.0/norm2/Add_output_0: 3b85c270
/reid_model/backbone/layers/layers.2/blocks.5/attn/qkv/Add_output_0: 3d2c8206
/reid_model/backbone/layers/layers.2/blocks.2/Transpose_1_output_0: 3cf7d011
ONNXTRT_Broadcast_3273_output: 3b810a14
/reid_model/backbone/layers/layers.3/blocks.0/norm2/ReduceMean_1_output_0: 3d9ee644
/reid_model/backbone/layers/layers.1/blocks.0/norm2/Add_1_output_0: 3d2c6bfe
onnx::MatMul_4898_output: 3af442b2
/reid_model/backbone/layers/layers.2/blocks.0/norm1/Constant_output_0_output: 3c810a14
/reid_model/backbone/patch_embed/proj/Conv expanded_const_filter: 3f800000
